/* Copyright 2020 The TensorFlow Authors. All Rights Reserved.

Licensed under the Apache License, Version 2.0 (the "License");
you may not use this file except in compliance with the License.
You may obtain a copy of the License at

    http://www.apache.org/licenses/LICENSE-2.0

Unless required by applicable law or agreed to in writing, software
distributed under the License is distributed on an "AS IS" BASIS,
WITHOUT WARRANTIES OR CONDITIONS OF ANY KIND, either express or implied.
See the License for the specific language governing permissions and
limitations under the License.
==============================================================================*/

// Automatically created from a TensorFlow Lite flatbuffer using the command:
// xxd -i model.tflite > model.cc

// This is a standard TensorFlow Lite model file that has been converted into a
// C data array, so it can be easily compiled into a binary for devices that
// don't have a file system.

// See train/README.md for a full description of the creation process.

#include "model.h"

// Keep model aligned to 8 bytes to guarantee aligned 64-bit accesses.
alignas(8) const unsigned char g_model[] = {
  0x24, 0x00, 0x00, 0x00, 0x54, 0x46, 0x4c, 0x33, 0x00, 0x00, 0x00, 0x00,
  0x00, 0x00, 0x00, 0x00, 0x00, 0x00, 0x12, 0x00, 0x1c, 0x00, 0x04, 0x00,
  0x08, 0x00, 0x0c, 0x00, 0x10, 0x00, 0x14, 0x00, 0x00, 0x00, 0x18, 0x00,
  0x12, 0x00, 0x00, 0x00, 0x03, 0x00, 0x00, 0x00, 0xfc, 0x21, 0x00, 0x00,
  0x40, 0x18, 0x00, 0x00, 0x28, 0x18, 0x00, 0x00, 0x3c, 0x00, 0x00, 0x00,
  0x04, 0x00, 0x00, 0x00, 0x01, 0x00, 0x00, 0x00, 0x0c, 0x00, 0x00, 0x00,
  0x08, 0x00, 0x0c, 0x00, 0x04, 0x00, 0x08, 0x00, 0x08, 0x00, 0x00, 0x00,
  0x08, 0x00, 0x00, 0x00, 0x0e, 0x00, 0x00, 0x00, 0x13, 0x00, 0x00, 0x00,
  0x6d, 0x69, 0x6e, 0x5f, 0x72, 0x75, 0x6e, 0x74, 0x69, 0x6d, 0x65, 0x5f,
  0x76, 0x65, 0x72, 0x73, 0x69, 0x6f, 0x6e, 0x00, 0x0f, 0x00, 0x00, 0x00,
  0xd4, 0x17, 0x00, 0x00, 0xc0, 0x17, 0x00, 0x00, 0xa4, 0x16, 0x00, 0x00,
  0x90, 0x15, 0x00, 0x00, 0x6c, 0x15, 0x00, 0x00, 0x48, 0x15, 0x00, 0x00,
  0x34, 0x11, 0x00, 0x00, 0x20, 0x01, 0x00, 0x00, 0x8c, 0x00, 0x00, 0x00,
  0x80, 0x00, 0x00, 0x00, 0x6c, 0x00, 0x00, 0x00, 0x58, 0x00, 0x00, 0x00,
  0x44, 0x00, 0x00, 0x00, 0x30, 0x00, 0x00, 0x00, 0x04, 0x00, 0x00, 0x00,
  0xae, 0xe7, 0xff, 0xff, 0x04, 0x00, 0x00, 0x00, 0x10, 0x00, 0x00, 0x00,
  0x31, 0x2e, 0x35, 0x2e, 0x30, 0x00, 0x00, 0x00, 0x00, 0x00, 0x00, 0x00,
  0x00, 0x00, 0x00, 0x00, 0x00, 0x00, 0x00, 0x00, 0x00, 0x00, 0x00, 0x00,
  0x00, 0x00, 0x00, 0x00, 0x14, 0xe1, 0xff, 0xff, 0x00, 0x00, 0x00, 0x00,
  0x00, 0x00, 0x00, 0x00, 0x00, 0x00, 0x00, 0x00, 0x24, 0xe1, 0xff, 0xff,
  0x00, 0x00, 0x00, 0x00, 0x00, 0x00, 0x00, 0x00, 0x00, 0x00, 0x00, 0x00,
  0x34, 0xe1, 0xff, 0xff, 0x00, 0x00, 0x00, 0x00, 0x00, 0x00, 0x00, 0x00,
  0x00, 0x00, 0x00, 0x00, 0x44, 0xe1, 0xff, 0xff, 0x00, 0x00, 0x00, 0x00,
  0x00, 0x00, 0x00, 0x00, 0x00, 0x00, 0x00, 0x00, 0x54, 0xe1, 0xff, 0xff,
  0x00, 0x00, 0x00, 0x00, 0x1e, 0xe8, 0xff, 0xff, 0x04, 0x00, 0x00, 0x00,
  0x80, 0x00, 0x00, 0x00, 0x55, 0x3c, 0x28, 0xe7, 0xdc, 0x20, 0xca, 0x2e,
  0x12, 0x61, 0x14, 0xa2, 0xb2, 0x25, 0x15, 0x2b, 0x31, 0x5b, 0xf6, 0xb0,
  0x0d, 0x4e, 0x73, 0xec, 0xa8, 0xc3, 0xef, 0xd4, 0x23, 0x07, 0x32, 0xeb,
  0x3d, 0x08, 0xdc, 0x50, 0xeb, 0xb3, 0xc5, 0x28, 0x33, 0xf9, 0x04, 0x41,
  0x91, 0xbc, 0x06, 0x88, 0xdb, 0x13, 0x3b, 0x3d, 0x2a, 0xc9, 0xd5, 0x7f,
  0xf1, 0xdc, 0xb7, 0xde, 0xac, 0xf4, 0x7b, 0x03, 0xcc, 0xf4, 0xa3, 0xf2,
  0x6e, 0x23, 0x47, 0xcd, 0x15, 0xb9, 0x0b, 0x36, 0x3a, 0xa1, 0x3b, 0x07,
  0xc5, 0xdc, 0x13, 0x51, 0x35, 0xe5, 0x98, 0x17, 0x48, 0x52, 0x23, 0x50,
  0xbf, 0xdd, 0xa7, 0xe5, 0xe5, 0xf2, 0x03, 0xb8, 0x28, 0x2f, 0x44, 0xf1,
  0x1f, 0xf5, 0x2e, 0xec, 0x53, 0x30, 0x0a, 0x2a, 0x4c, 0xd5, 0xf1, 0xb4,
  0xdb, 0x2f, 0xd4, 0xa9, 0x21, 0xe6, 0x31, 0x4b, 0x34, 0x18, 0xbc, 0xba,
  0x00, 0x00, 0x00, 0x00, 0xae, 0xe8, 0xff, 0xff, 0x04, 0x00, 0x00, 0x00,
  0x00, 0x10, 0x00, 0x00, 0xff, 0xe5, 0x02, 0xf8, 0x09, 0x01, 0x02, 0xfd,
  0x0a, 0xfe, 0x03, 0x10, 0x03, 0xfd, 0xfd, 0xf5, 0x0b, 0xfb, 0xff, 0xff,
  0x00, 0xfe, 0x04, 0xfe, 0x0a, 0xff, 0xf4, 0x02, 0x05, 0x0b, 0x04, 0x0b,
  0x0b, 0xf8, 0x01, 0xfd, 0x07, 0xfd, 0xf6, 0xfa, 0xfe, 0xfe, 0x00, 0xf5,
  0x08, 0x09, 0x00, 0xf5, 0xfa, 0xfa, 0x0d, 0x0c, 0xff, 0xff, 0xf5, 0x08,
  0xf8, 0xfc, 0x04, 0x0d, 0x09, 0xf9, 0x17, 0xf9, 0x0e, 0x0a, 0xec, 0xf6,
  0xfd, 0xe2, 0x01, 0x04, 0xfd, 0xff, 0xf4, 0x0c, 0x0d, 0xf0, 0xfb, 0xfb,
  0xff, 0xff, 0x14, 0x12, 0x0c, 0x01, 0xee, 0x08, 0x00, 0xfb, 0x05, 0x0f,
  0xf8, 0xf8, 0x0a, 0xea, 0x02, 0xf5, 0x0f, 0x00, 0x08, 0x09, 0x09, 0x09,
  0xf5, 0xfa, 0xf9, 0xfd, 0x02, 0xf3, 0x04, 0xec, 0xf4, 0x04, 0xf8, 0x08,
  0x1f, 0xf5, 0xf5, 0xfc, 0xfc, 0x14, 0xeb, 0xfd, 0x01, 0xf4, 0xf7, 0x06,
  0xfc, 0x01, 0x0b, 0xe8, 0xfe, 0x05, 0x06, 0x06, 0x0a, 0xfa, 0xfa, 0x04,
  0x00, 0x05, 0x05, 0xf9, 0x01, 0x02, 0xf1, 0xff, 0x00, 0x0a, 0xf4, 0x03,
  0x07, 0x0a, 0x02, 0x0c, 0x05, 0xfa, 0x09, 0x05, 0x02, 0xfd, 0x00, 0x07,
  0x04, 0xdf, 0xf8, 0xf8, 0xfa, 0xff, 0xfa, 0x09, 0xf9, 0x0a, 0x00, 0xfb,
  0xf8, 0xff, 0xf6, 0x00, 0xf7, 0xfa, 0x0c, 0xfa, 0x00, 0xff, 0x03, 0xf4,
  0x09, 0x05, 0xf7, 0xfe, 0xf9, 0x01, 0xfd, 0xfe, 0xef, 0xf7, 0x06, 0x02,
  0xfb, 0xf7, 0xfb, 0x09, 0xf4, 0x09, 0xf6, 0xf7, 0xff, 0x03, 0xf6, 0xfa,
  0x03, 0x08, 0x05, 0xf7, 0xff, 0xf9, 0x0a, 0xff, 0x06, 0xfc, 0x06, 0x03,
  0xf5, 0xf1, 0x00, 0x06, 0x00, 0x05, 0x04, 0x01, 0x09, 0xff, 0xfe, 0x03,
  0xf7, 0xf8, 0xfe, 0x05, 0xfd, 0xfe, 0xfc, 0x04, 0x06, 0xf7, 0x01, 0xfb,
  0x09, 0xf7, 0xf4, 0xfe, 0x02, 0x04, 0x06, 0x00, 0x0c, 0x06, 0x06, 0xfb,
  0x09, 0x04, 0xf5, 0x0a, 0xfa, 0x0a, 0x04, 0x05, 0x03, 0x01, 0xfd, 0xff,
  0x09, 0xfe, 0xf0, 0xfe, 0x03, 0xf6, 0x00, 0x0a, 0xf5, 0x00, 0x0d, 0x06,
  0x09, 0x06, 0xf9, 0x0b, 0xf8, 0xfe, 0xf6, 0xfd, 0xfe, 0xfe, 0xff, 0xfd,
  0x09, 0x03, 0xfb, 0xf6, 0x08, 0x08, 0xf5, 0x04, 0x0b, 0x06, 0xf2, 0xf9,
  0x0c, 0x08, 0xfc, 0xf9, 0xf9, 0xfb, 0x0c, 0xfe, 0x08, 0x0b, 0x04, 0x02,
  0xfe, 0x03, 0xfa, 0xfa, 0xf3, 0xf1, 0xf7, 0xfb, 0xf7, 0xfb, 0x02, 0x09,
  0xf7, 0x06, 0x06, 0xf5, 0xfa, 0x02, 0x0b, 0x08, 0xfa, 0xff, 0xf8, 0xf7,
  0x0b, 0xfe, 0xf4, 0x05, 0x04, 0xfd, 0xfb, 0x09, 0xf7, 0xef, 0x09, 0xff,
  0xf6, 0x03, 0xff, 0xfd, 0xfa, 0xfd, 0xf9, 0xfc, 0xf9, 0xf6, 0x07, 0xf8,
  0x04, 0x08, 0x07, 0xf4, 0x01, 0x04, 0x05, 0xfd, 0xfd, 0x01, 0xed, 0xfe,
  0xf9, 0x01, 0x09, 0x05, 0x06, 0xfd, 0x04, 0x03, 0x0a, 0x02, 0xfd, 0xfc,
  0xf6, 0x02, 0x04, 0x0e, 0x0a, 0x08, 0x08, 0x08, 0x00, 0x01, 0xfc, 0x01,
  0xfd, 0xf4, 0x0f, 0x10, 0x04, 0x0e, 0x0d, 0x07, 0xf6, 0x06, 0xf6, 0x1b,
  0x0f, 0x08, 0xf2, 0x0a, 0xfd, 0x03, 0x09, 0x09, 0xf8, 0x0c, 0x06, 0x04,
  0x03, 0x0a, 0x0b, 0x0b, 0x06, 0x00, 0x0f, 0x06, 0x0e, 0x11, 0xfd, 0xf8,
  0x05, 0x0a, 0x00, 0x1c, 0xff, 0x02, 0xfe, 0x02, 0x0c, 0xfa, 0xff, 0xf4,
  0x01, 0x8a, 0xe4, 0xf8, 0x05, 0x01, 0xfa, 0x06, 0x05, 0x22, 0xf4, 0xff,
  0xf0, 0x04, 0x07, 0x12, 0x02, 0x0b, 0xfc, 0x09, 0x01, 0xff, 0x01, 0xac,
  0xfc, 0x0b, 0x16, 0xea, 0x05, 0xe2, 0xfd, 0xfe, 0xf8, 0xfd, 0x29, 0xf6,
  0xfd, 0x06, 0x01, 0xfb, 0xfd, 0xfe, 0xfc, 0xf0, 0x05, 0x03, 0x02, 0x01,
  0xfe, 0xf8, 0x10, 0xff, 0x04, 0xf4, 0x01, 0xfe, 0x0a, 0x00, 0x14, 0xfc,
  0x02, 0xf5, 0x01, 0xfa, 0xf6, 0xfc, 0xfd, 0xf2, 0x0a, 0x06, 0xf5, 0xf6,
  0xfb, 0xf8, 0xf5, 0xff, 0xfa, 0x04, 0xf5, 0x03, 0xf5, 0xf4, 0xfd, 0xf2,
  0x02, 0xfc, 0xf6, 0xf8, 0x0b, 0xf6, 0x00, 0xfd, 0x00, 0xfa, 0xfd, 0x0b,
  0xff, 0x00, 0xf1, 0xf1, 0xfc, 0x00, 0xf8, 0x01, 0x09, 0x00, 0x06, 0xf0,
  0x04, 0xfe, 0xf8, 0xf8, 0xf3, 0x06, 0xf8, 0x02, 0xfe, 0x10, 0xfa, 0x06,
  0xf4, 0xf2, 0xf9, 0x00, 0x00, 0xf0, 0xfd, 0x0f, 0x00, 0x04, 0xf9, 0xf8,
  0x03, 0xf7, 0x11, 0xfa, 0x01, 0xfe, 0x01, 0x04, 0xfb, 0xfb, 0xfe, 0xfc,
  0xfa, 0xf0, 0xf4, 0xfa, 0xf5, 0xf4, 0x0a, 0xff, 0x09, 0xfd, 0xf8, 0xfa,
  0x03, 0xff, 0xf3, 0xfb, 0x0a, 0xfe, 0x07, 0xfd, 0xf8, 0x07, 0x08, 0xfe,
  0xf9, 0xff, 0xf4, 0x05, 0xf5, 0xfd, 0x07, 0x07, 0x08, 0xf7, 0x02, 0x06,
  0xf9, 0xfa, 0x00, 0xf6, 0x0a, 0xff, 0xfb, 0x09, 0x00, 0x01, 0x05, 0x0b,
  0xfa, 0x01, 0xfc, 0xfe, 0xf8, 0x08, 0xfd, 0x00, 0x01, 0x00, 0xfe, 0xf8,
  0x04, 0xf6, 0x04, 0xf3, 0x00, 0xf6, 0x07, 0x08, 0x0b, 0x01, 0x06, 0xf1,
  0x0b, 0xfa, 0xfe, 0xf6, 0x04, 0xf3, 0x04, 0xfe, 0x02, 0xf9, 0xfa, 0xf6,
  0xfb, 0x01, 0xf9, 0x04, 0x02, 0x06, 0x00, 0xfe, 0x01, 0xf6, 0x01, 0xfe,
  0x03, 0xff, 0xfe, 0xf4, 0xfc, 0xf8, 0xf6, 0x01, 0x07, 0xf4, 0xfe, 0x0b,
  0x07, 0x0d, 0xf6, 0xfb, 0x07, 0xfe, 0xfa, 0xfd, 0x03, 0xfc, 0x09, 0xf3,
  0xfd, 0xf9, 0xfb, 0x02, 0x12, 0x0b, 0xf9, 0xf7, 0xfd, 0xf9, 0x0a, 0xed,
  0x04, 0x05, 0xff, 0xfe, 0x06, 0xe4, 0x0f, 0x07, 0x04, 0xfa, 0x06, 0x0d,
  0x02, 0x01, 0x04, 0x00, 0x07, 0x03, 0x06, 0x08, 0xf5, 0x09, 0x01, 0x00,
  0xff, 0x04, 0xff, 0x00, 0xff, 0x0c, 0xf9, 0x0a, 0x05, 0xef, 0x07, 0xf6,
  0xfd, 0xfb, 0xf8, 0x0a, 0x06, 0x03, 0x0c, 0x09, 0xf9, 0x07, 0xf5, 0x0b,
  0x02, 0xfe, 0xf8, 0x00, 0xfe, 0x00, 0x0c, 0xfa, 0xf7, 0x08, 0x05, 0x0c,
  0xf8, 0xf4, 0x0e, 0x02, 0x02, 0x05, 0xf9, 0x06, 0xf9, 0xfe, 0xfd, 0x08,
  0x0c, 0x05, 0xfd, 0xfa, 0xfd, 0x07, 0xfe, 0xff, 0xf7, 0xf7, 0xf8, 0xfa,
  0xf6, 0xfa, 0x02, 0xfc, 0x03, 0xf9, 0xfa, 0x07, 0x04, 0x03, 0xff, 0x05,
  0xff, 0x0c, 0x04, 0x0a, 0x04, 0xf8, 0x06, 0x07, 0x01, 0x05, 0x08, 0xff,
  0x03, 0x03, 0x05, 0x08, 0x0b, 0xf9, 0x0c, 0xf5, 0xfe, 0x06, 0x01, 0x07,
  0xfc, 0xfd, 0xf4, 0xff, 0xf9, 0x10, 0x00, 0xff, 0x0c, 0xff, 0xf4, 0x0b,
  0xfd, 0xfd, 0x08, 0xea, 0xfd, 0xff, 0xfd, 0x05, 0xfe, 0xfa, 0xf7, 0x07,
  0x05, 0x02, 0x0a, 0xf6, 0x00, 0xf6, 0x09, 0xfb, 0xf3, 0xf2, 0xfd, 0x06,
  0x03, 0x03, 0x08, 0x08, 0x0b, 0x05, 0xfd, 0x02, 0xe4, 0x04, 0xf8, 0x07,
  0xfb, 0xfe, 0xf3, 0xf2, 0x0b, 0x0a, 0xe3, 0xfb, 0x02, 0x04, 0xf0, 0xf9,
  0xf1, 0x0c, 0xf2, 0xeb, 0xf7, 0x07, 0x04, 0x0d, 0xf3, 0xf8, 0xfe, 0x06,
  0x00, 0x08, 0xfe, 0x15, 0x00, 0x09, 0x02, 0xf4, 0xff, 0xef, 0xe6, 0x00,
  0x0b, 0xe2, 0xfc, 0x08, 0x02, 0xf8, 0x01, 0x05, 0x00, 0x16, 0xfc, 0x09,
  0xf0, 0xeb, 0x01, 0xf0, 0xfa, 0x03, 0x25, 0x06, 0x02, 0x13, 0x07, 0xff,
  0xfc, 0xf2, 0x0b, 0x04, 0xf1, 0xfb, 0x01, 0xfb, 0x00, 0x00, 0xf7, 0xf5,
  0xf6, 0x0c, 0x05, 0xf9, 0xfb, 0x05, 0xf1, 0xfd, 0xf7, 0x04, 0xf6, 0x03,
  0x08, 0xf8, 0x06, 0xf5, 0xf7, 0xfc, 0x0c, 0xf9, 0xfd, 0x01, 0xfd, 0x0b,
  0xfa, 0xe4, 0xfe, 0x03, 0xf5, 0xea, 0xf9, 0xfa, 0xff, 0x03, 0xf7, 0xf3,
  0x02, 0xfc, 0x08, 0x03, 0x09, 0x03, 0xf9, 0x03, 0xf4, 0xfb, 0x05, 0xf8,
  0xf1, 0xff, 0xf8, 0x13, 0x04, 0xf0, 0x04, 0xf6, 0x05, 0x0a, 0x04, 0xf5,
  0x07, 0x00, 0x03, 0xf9, 0x04, 0xef, 0x0a, 0x08, 0x00, 0x02, 0xf3, 0x01,
  0xfe, 0xf0, 0x09, 0xf5, 0xfa, 0xfe, 0xfb, 0xfa, 0x02, 0x11, 0xf3, 0x01,
  0x09, 0xf8, 0xfc, 0x01, 0xf2, 0x05, 0xfb, 0xf2, 0xf9, 0x00, 0xf7, 0x0a,
  0xf8, 0xff, 0x05, 0xe3, 0x05, 0x0c, 0x01, 0x0c, 0xfd, 0xf9, 0xf0, 0x00,
  0x01, 0xf5, 0x00, 0x07, 0x01, 0x04, 0xfe, 0xee, 0xf6, 0x05, 0x06, 0x01,
  0x05, 0xfa, 0xfa, 0x0c, 0xf8, 0xfb, 0xfc, 0x01, 0xf8, 0x05, 0xff, 0x05,
  0x01, 0x01, 0x08, 0x03, 0x05, 0x05, 0x05, 0xf1, 0x04, 0xff, 0xfd, 0x00,
  0x03, 0x07, 0xfa, 0x00, 0x02, 0x04, 0x06, 0x09, 0xfc, 0x03, 0x06, 0xfc,
  0x06, 0x04, 0x03, 0xff, 0xf7, 0xf7, 0xf7, 0xff, 0x07, 0x04, 0x08, 0x08,
  0x04, 0x01, 0xff, 0xfb, 0x05, 0xff, 0x13, 0xfa, 0x02, 0x04, 0x03, 0x04,
  0xf8, 0x02, 0xfb, 0x0c, 0xfd, 0x18, 0xee, 0xf8, 0x02, 0x09, 0x05, 0xfd,
  0x0b, 0x0b, 0x0b, 0x01, 0xfc, 0xfe, 0xf4, 0xfd, 0xf5, 0x04, 0x19, 0x11,
  0x06, 0xfb, 0x08, 0x1e, 0xf7, 0x07, 0xfb, 0x1d, 0x09, 0xfe, 0xf8, 0x00,
  0x04, 0xda, 0x09, 0x08, 0xfc, 0x1a, 0xeb, 0x09, 0x00, 0xfb, 0xfb, 0xf8,
  0x07, 0xf5, 0xfe, 0x10, 0xf3, 0x03, 0xfd, 0xf3, 0xf5, 0xf8, 0x03, 0x0d,
  0x12, 0x0d, 0xfa, 0x07, 0xed, 0x04, 0xfb, 0xf9, 0xea, 0x13, 0xf4, 0x10,
  0x0a, 0x08, 0xe6, 0xf9, 0x0c, 0x1b, 0xfb, 0x00, 0x08, 0x0b, 0x0e, 0xff,
  0x01, 0xf2, 0x0a, 0x09, 0x04, 0xf8, 0xf8, 0x09, 0x09, 0x0c, 0x13, 0xfb,
  0xfd, 0xf2, 0xf3, 0x18, 0x16, 0x10, 0xef, 0x08, 0xfa, 0x12, 0x02, 0xf3,
  0xf5, 0xf9, 0x06, 0x0c, 0xfe, 0xf9, 0x03, 0x11, 0x0b, 0xf8, 0x1e, 0xf1,
  0x04, 0x0c, 0xf7, 0x0c, 0xf5, 0x0b, 0xee, 0x01, 0x03, 0xf0, 0x00, 0x0a,
  0xeb, 0x09, 0xf3, 0x06, 0x05, 0x0b, 0xfd, 0xfd, 0x03, 0xfd, 0x10, 0xfc,
  0x04, 0x04, 0x04, 0x06, 0xf3, 0xf4, 0xfd, 0xff, 0x0a, 0xfe, 0x0e, 0xfd,
  0xf9, 0x04, 0x02, 0x15, 0xfb, 0x05, 0xf6, 0x11, 0x11, 0xf1, 0xf5, 0xfd,
  0xfb, 0x02, 0x0d, 0xf3, 0xf8, 0xf8, 0x08, 0x0a, 0x02, 0x06, 0xfb, 0x12,
  0x0b, 0xfb, 0x0f, 0xfe, 0x0c, 0x01, 0x03, 0xf7, 0xeb, 0x0c, 0x01, 0x03,
  0xf6, 0xfe, 0x14, 0x0a, 0x00, 0x01, 0xff, 0x01, 0x05, 0x02, 0x06, 0x01,
  0x01, 0x05, 0x0c, 0x04, 0xfc, 0x02, 0xf8, 0x06, 0x02, 0xfc, 0xfa, 0xfd,
  0x06, 0x09, 0xfe, 0x01, 0x00, 0xf8, 0x00, 0x06, 0x06, 0xfb, 0x11, 0x08,
  0x04, 0xf4, 0x06, 0x03, 0x05, 0x05, 0x05, 0x00, 0xf5, 0xfa, 0x09, 0xfe,
  0xf7, 0xf6, 0xfc, 0x06, 0xf9, 0xfb, 0x07, 0x06, 0x00, 0x01, 0x0d, 0x05,
  0xf8, 0x09, 0x03, 0xfb, 0xfc, 0x07, 0x03, 0x0a, 0xf7, 0x08, 0xfe, 0x01,
  0x03, 0xe7, 0x02, 0x02, 0x03, 0x01, 0x07, 0x04, 0xf8, 0xf6, 0x02, 0xf7,
  0x10, 0x05, 0xf4, 0x12, 0x01, 0xf9, 0xfd, 0xfc, 0x09, 0xe7, 0xea, 0xff,
  0xfd, 0xfd, 0xfc, 0x03, 0x05, 0x01, 0x01, 0xfa, 0xfe, 0xfe, 0xf1, 0x00,
  0xfd, 0x01, 0xff, 0xff, 0x03, 0xed, 0x04, 0x00, 0x01, 0xf9, 0x02, 0x07,
  0x07, 0x03, 0x02, 0x00, 0x06, 0xfb, 0x04, 0x06, 0xfd, 0xff, 0xfe, 0xf3,
  0x04, 0x05, 0xf8, 0x0a, 0x03, 0x05, 0xfd, 0xff, 0xfb, 0x03, 0x01, 0x05,
  0x06, 0x16, 0xf2, 0x01, 0x13, 0x00, 0x1a, 0xf9, 0xfe, 0xf9, 0xff, 0x03,
  0x03, 0x13, 0x07, 0xd3, 0xf6, 0x06, 0xf9, 0x12, 0x0a, 0xfa, 0xf4, 0x0f,
  0x0c, 0x15, 0x27, 0xfd, 0x04, 0xff, 0x16, 0xfd, 0x06, 0xf5, 0xff, 0xfd,
  0x09, 0x04, 0x0a, 0x11, 0x0d, 0x06, 0xf4, 0x07, 0xed, 0x02, 0xed, 0x0b,
  0x17, 0xef, 0x0b, 0xfb, 0x00, 0xfc, 0x05, 0xf7, 0x0a, 0xf6, 0x08, 0x05,
  0x00, 0x08, 0xfc, 0xf9, 0xf7, 0x01, 0xfe, 0x00, 0x08, 0xf3, 0x0a, 0x0b,
  0x07, 0x03, 0xff, 0x04, 0x02, 0x09, 0x07, 0x01, 0xf9, 0x05, 0xf9, 0xfd,
  0x01, 0x04, 0xf5, 0xf5, 0x04, 0xff, 0x02, 0x09, 0x07, 0xf5, 0xfd, 0xf6,
  0x06, 0xf8, 0x02, 0x04, 0x09, 0xf8, 0xff, 0xf9, 0x0a, 0x00, 0x0b, 0xfd,
  0x07, 0x07, 0x0a, 0x08, 0xf8, 0x03, 0x09, 0x00, 0xf7, 0x10, 0x04, 0xfd,
  0x06, 0x0b, 0xfc, 0x0a, 0xfb, 0x0d, 0xfa, 0xf5, 0xfc, 0xfe, 0x05, 0x04,
  0xff, 0xfc, 0xf4, 0x02, 0x02, 0x0d, 0x03, 0x0a, 0x03, 0x04, 0xf8, 0x09,
  0x02, 0x05, 0x04, 0x00, 0xf6, 0xfa, 0x00, 0x02, 0xfb, 0xfc, 0x0b, 0xfb,
  0xf8, 0xff, 0xff, 0xfc, 0xf7, 0x07, 0xfa, 0x05, 0x03, 0xfe, 0xf9, 0x08,
  0x05, 0xf8, 0xfe, 0x08, 0xfc, 0xee, 0x0b, 0xfb, 0x02, 0x01, 0xfd, 0x06,
  0x01, 0x0f, 0x01, 0x0b, 0xf3, 0x03, 0x0c, 0x0c, 0xf5, 0x02, 0xf5, 0xfe,
  0x08, 0xea, 0xf9, 0xf8, 0x01, 0x0f, 0xf9, 0xfd, 0x0c, 0xf8, 0xe9, 0x06,
  0xff, 0x0d, 0x09, 0x05, 0xf4, 0xfb, 0x03, 0xed, 0x02, 0xf7, 0xfe, 0x11,
  0x04, 0xfa, 0x09, 0x09, 0x03, 0x0a, 0xf2, 0x11, 0x0c, 0x04, 0x0a, 0xfd,
  0x08, 0x03, 0x08, 0xf6, 0xff, 0xfe, 0x03, 0xfb, 0xfb, 0x04, 0xf1, 0xfa,
  0x08, 0xff, 0xee, 0x0a, 0x06, 0xf7, 0x02, 0xfc, 0x02, 0x05, 0x06, 0x01,
  0x06, 0xfb, 0x01, 0xf4, 0xfc, 0x03, 0xff, 0x0b, 0xfe, 0x00, 0x0b, 0xf9,
  0x03, 0xf9, 0x09, 0x0d, 0x08, 0x09, 0x0c, 0x04, 0xfd, 0x01, 0x00, 0x09,
  0x05, 0x07, 0x0a, 0xf8, 0x05, 0x08, 0x04, 0x03, 0x03, 0xff, 0x0a, 0x03,
  0xfb, 0xf5, 0xf9, 0x08, 0xf6, 0x03, 0x04, 0x0a, 0x0b, 0x0b, 0xff, 0x09,
  0xfe, 0xfa, 0x03, 0x0a, 0xfb, 0xfa, 0xfe, 0xfe, 0x0c, 0x07, 0x08, 0xfb,
  0x04, 0xfd, 0xfb, 0x0a, 0xf9, 0x02, 0xf5, 0x00, 0x08, 0xfb, 0x08, 0x09,
  0x0f, 0x03, 0x02, 0x07, 0xfd, 0x02, 0x08, 0xfd, 0xf8, 0xfb, 0xfd, 0x04,
  0x06, 0x0a, 0x01, 0x02, 0x00, 0xfc, 0x07, 0x04, 0xf9, 0xf9, 0xfe, 0x05,
  0xf8, 0x07, 0x02, 0x07, 0xf6, 0x02, 0xff, 0x03, 0x05, 0x03, 0xfd, 0xfd,
  0xff, 0x0b, 0x04, 0xfc, 0xf7, 0x07, 0x07, 0x05, 0x08, 0x0a, 0x09, 0x0c,
  0x02, 0xec, 0x0e, 0xfb, 0xf6, 0xff, 0xf0, 0xfe, 0x01, 0xf9, 0xf7, 0x0c,
  0x0a, 0xeb, 0x0a, 0x04, 0x0d, 0x07, 0xfd, 0xfc, 0xf4, 0xf9, 0x00, 0xf1,
  0x01, 0x09, 0xec, 0xdf, 0x00, 0xfd, 0x07, 0xf1, 0xef, 0xe6, 0xf9, 0xf9,
  0xfd, 0x0b, 0xee, 0xf5, 0x04, 0xff, 0xff, 0x01, 0x0b, 0x09, 0x08, 0x00,
  0x05, 0xff, 0xf0, 0xfd, 0xfe, 0x06, 0x02, 0xef, 0xfa, 0xf9, 0xf0, 0xf8,
  0xeb, 0xf2, 0x14, 0xf6, 0xff, 0xf9, 0xfb, 0xf9, 0x09, 0x07, 0x03, 0x01,
  0xf9, 0xfc, 0xff, 0x0d, 0x04, 0x08, 0xfa, 0x03, 0x00, 0xf9, 0xfb, 0x07,
  0xff, 0x05, 0xf7, 0xf6, 0xf8, 0xfe, 0x03, 0x01, 0x03, 0xfe, 0xf4, 0xfa,
  0x06, 0xfc, 0x01, 0x00, 0xf5, 0xfe, 0xfd, 0x09, 0xf5, 0xf6, 0x05, 0x07,
  0x03, 0x06, 0xf8, 0x07, 0xf9, 0x06, 0x09, 0x0b, 0x01, 0xf8, 0x09, 0xf7,
  0x04, 0x0c, 0x02, 0x00, 0xfd, 0x01, 0x08, 0x05, 0xfd, 0x07, 0xf1, 0x01,
  0xf9, 0xff, 0xff, 0x0a, 0x03, 0xf6, 0x0a, 0xf7, 0x02, 0x05, 0xfd, 0xf4,
  0xf9, 0xfd, 0xf9, 0x00, 0xf5, 0x00, 0x03, 0x04, 0x01, 0xfa, 0x0b, 0xf8,
  0x0b, 0xfd, 0xff, 0xf6, 0xf2, 0xf5, 0x07, 0x06, 0x07, 0xf8, 0xf0, 0xfb,
  0x06, 0x03, 0xf1, 0xf7, 0xff, 0xfb, 0xf9, 0x05, 0x08, 0xf5, 0xfc, 0xfe,
  0xf6, 0x06, 0xf7, 0xf4, 0x07, 0xf9, 0xfa, 0x05, 0x00, 0xee, 0xf5, 0xff,
  0xff, 0xfe, 0xfa, 0x0d, 0x02, 0xfb, 0x02, 0xf4, 0x01, 0xfd, 0xf8, 0x03,
  0x05, 0xfa, 0x07, 0x06, 0x0c, 0xfe, 0x03, 0x04, 0xf9, 0xfa, 0x00, 0x00,
  0xf7, 0x0b, 0x05, 0x00, 0xf9, 0x02, 0x02, 0x01, 0x05, 0x04, 0xf2, 0x03,
  0x06, 0xf9, 0x0a, 0x03, 0x0a, 0x07, 0xf5, 0xfa, 0xff, 0x03, 0x02, 0x00,
  0x00, 0xf7, 0xf9, 0xfa, 0xfc, 0x07, 0x09, 0x09, 0x03, 0xf5, 0x06, 0xfd,
  0x07, 0x0b, 0xf7, 0x02, 0xe6, 0x08, 0xdd, 0xf3, 0xe3, 0xfc, 0xf8, 0xee,
  0x03, 0xfb, 0xf3, 0x11, 0xfb, 0x09, 0x00, 0xf5, 0xec, 0x03, 0xf4, 0x00,
  0x07, 0x05, 0xf8, 0x00, 0xf5, 0xff, 0x07, 0xed, 0x06, 0xfe, 0x1c, 0xec,
  0x04, 0xf8, 0xf0, 0xfc, 0x02, 0x02, 0x08, 0x02, 0xf6, 0xf9, 0x04, 0xf8,
  0xf9, 0x0d, 0xfa, 0xf8, 0x03, 0xfc, 0xfc, 0xfe, 0xd4, 0x04, 0x0b, 0x0d,
  0xf8, 0xea, 0xfb, 0x1b, 0x04, 0xee, 0x09, 0x05, 0x04, 0xf9, 0xf8, 0x0a,
  0xf5, 0x08, 0x15, 0x00, 0x09, 0x09, 0x02, 0x03, 0xfe, 0xfc, 0xfc, 0xfc,
  0xf8, 0xfd, 0x11, 0xf9, 0xf3, 0xf5, 0xf8, 0x00, 0xf9, 0x0c, 0x02, 0x09,
  0x01, 0x0b, 0xef, 0x14, 0x1d, 0xfb, 0x00, 0x04, 0xf8, 0xf1, 0x20, 0x06,
  0xf7, 0xf6, 0x10, 0xf8, 0xf9, 0xeb, 0x04, 0x06, 0x06, 0xf1, 0x05, 0xf3,
  0xef, 0x06, 0x08, 0x01, 0x01, 0xf7, 0xfb, 0x18, 0x15, 0x18, 0x1d, 0x09,
  0x06, 0xf0, 0xfc, 0x04, 0x07, 0xff, 0x0a, 0x09, 0xfe, 0x02, 0xf4, 0x0d,
  0xfd, 0xfe, 0x08, 0x0b, 0x07, 0xfe, 0x03, 0x0b, 0x06, 0xf2, 0x03, 0xf8,
  0x03, 0xfe, 0xf7, 0x03, 0x05, 0x00, 0x00, 0xfd, 0xfe, 0xfd, 0x03, 0x02,
  0x05, 0x00, 0xfd, 0x02, 0xff, 0x00, 0x01, 0xf5, 0xfd, 0xf7, 0x03, 0x02,
  0x04, 0x06, 0xf5, 0x08, 0x07, 0x09, 0xfc, 0x08, 0x00, 0xfc, 0x02, 0xf3,
  0xfd, 0xff, 0x0b, 0x04, 0xdc, 0x12, 0x05, 0x08, 0xf2, 0xff, 0x07, 0xf6,
  0x00, 0xfe, 0x09, 0x03, 0xee, 0xf9, 0x06, 0x09, 0x0c, 0x08, 0x04, 0xf4,
  0x0a, 0x06, 0xfc, 0xfd, 0x05, 0x09, 0x0b, 0x12, 0xfb, 0x08, 0xf3, 0x13,
  0xfe, 0xe4, 0x0f, 0x12, 0x03, 0x05, 0xf9, 0xf3, 0xfe, 0x0a, 0xff, 0xe2,
  0x02, 0xf5, 0x05, 0xef, 0x0c, 0x07, 0xec, 0x07, 0xfc, 0x05, 0xfc, 0x00,
  0xf7, 0x0d, 0x05, 0xf1, 0x0a, 0xfb, 0x09, 0x0e, 0x03, 0x0b, 0x07, 0x08,
  0xf6, 0x0a, 0x02, 0x09, 0x07, 0xfd, 0x03, 0x03, 0x06, 0xfc, 0x01, 0xfc,
  0x0a, 0xf7, 0xf8, 0x07, 0xfb, 0xff, 0xfc, 0xf9, 0xfd, 0xf7, 0x0b, 0x0d,
  0x03, 0xf8, 0xf7, 0xfe, 0xf9, 0x00, 0x03, 0x05, 0x07, 0xf5, 0x0b, 0xf7,
  0xf6, 0x0a, 0x04, 0xf4, 0x02, 0xf6, 0xf9, 0x03, 0xfb, 0x06, 0x07, 0x09,
  0xf9, 0xf9, 0xfc, 0xfb, 0x0a, 0x0a, 0x0d, 0x02, 0xfc, 0xfc, 0xff, 0xf1,
  0x08, 0x09, 0x02, 0xf8, 0x04, 0x00, 0x08, 0xfb, 0x0a, 0x0a, 0xff, 0xf8,
  0x03, 0xfb, 0x01, 0x08, 0x06, 0x01, 0x0b, 0xfa, 0x01, 0xf4, 0x00, 0xfc,
  0xfc, 0xfb, 0x00, 0xfc, 0xfa, 0x07, 0xff, 0xf9, 0x04, 0x0b, 0xfe, 0x05,
  0x03, 0xfa, 0xff, 0xf9, 0xf6, 0xfa, 0xfc, 0xfb, 0x04, 0xff, 0xf8, 0xf6,
  0xfd, 0xfa, 0xff, 0x0a, 0x07, 0x0b, 0x03, 0x07, 0x03, 0xfe, 0x05, 0xfa,
  0x0d, 0x06, 0x01, 0x05, 0xfd, 0x05, 0xff, 0x04, 0x01, 0xf9, 0xfc, 0xfe,
  0xfb, 0x06, 0xf5, 0x0a, 0xf8, 0x02, 0xf6, 0xfd, 0x05, 0x07, 0x08, 0xfd,
  0xf8, 0x0b, 0xff, 0xfd, 0x06, 0x03, 0xfd, 0xfe, 0x06, 0x02, 0xf6, 0xfb,
  0xfa, 0xf9, 0xf8, 0xff, 0xf6, 0xf7, 0xfe, 0x06, 0x05, 0x04, 0xfc, 0x08,
  0x0b, 0x05, 0xf4, 0xf9, 0xf8, 0xf6, 0x0a, 0xfa, 0xfb, 0x04, 0x0b, 0x07,
  0xf5, 0x08, 0xf3, 0x00, 0xf8, 0xfc, 0x01, 0x0b, 0xf7, 0x0f, 0xf2, 0xf5,
  0xf1, 0x05, 0x09, 0x01, 0x01, 0xf9, 0xfa, 0xf5, 0xf4, 0x18, 0xff, 0xef,
  0xfc, 0x01, 0x03, 0xff, 0xf8, 0xfb, 0x04, 0xf3, 0xf8, 0xfe, 0xff, 0xe4,
  0x09, 0xf9, 0xf7, 0xf4, 0xf3, 0xec, 0x01, 0xf5, 0x07, 0x0b, 0xe9, 0x07,
  0xf8, 0xfb, 0x0b, 0xf1, 0xf6, 0xfa, 0xfa, 0xfd, 0x07, 0xf0, 0xf8, 0x00,
  0xf1, 0xfa, 0xf8, 0xfb, 0xf9, 0xf9, 0xf3, 0xfa, 0xfc, 0xf7, 0x06, 0xf3,
  0x01, 0xfa, 0xf3, 0xf5, 0xed, 0xff, 0xf4, 0x02, 0xfb, 0x01, 0xfe, 0xf9,
  0xeb, 0xfc, 0xfd, 0x06, 0x00, 0xfb, 0x07, 0x0b, 0x06, 0xfb, 0xf5, 0xf5,
  0xf6, 0x02, 0x08, 0xee, 0x05, 0x0c, 0xf9, 0xfe, 0xf4, 0xee, 0xe8, 0xfc,
  0xfd, 0x07, 0x08, 0xe7, 0xfd, 0x09, 0xef, 0x16, 0x00, 0x04, 0x00, 0xf5,
  0xfa, 0x01, 0xfc, 0xf8, 0xea, 0x07, 0xfa, 0x06, 0x00, 0xf8, 0xf6, 0x03,
  0x0f, 0xf8, 0x0d, 0xf4, 0xe5, 0xfd, 0x12, 0x01, 0x04, 0xff, 0x06, 0xf8,
  0xf7, 0x04, 0x08, 0xf5, 0x10, 0x12, 0x0f, 0x01, 0xfa, 0xff, 0x10, 0x0b,
  0x03, 0xf5, 0x09, 0xf8, 0xf7, 0x01, 0x08, 0xfc, 0x07, 0xf4, 0xf9, 0xf6,
  0x00, 0x01, 0x0a, 0xfe, 0x01, 0xe3, 0xfa, 0xff, 0x05, 0x04, 0x01, 0x15,
  0x12, 0x16, 0x06, 0xf8, 0x08, 0xf3, 0xec, 0xf7, 0x0b, 0x20, 0xed, 0x13,
  0xee, 0x0b, 0xf6, 0x03, 0x08, 0xf2, 0xfe, 0x08, 0x01, 0x08, 0x05, 0xfe,
  0x07, 0xfd, 0x07, 0x00, 0x05, 0x09, 0x09, 0x0a, 0xf8, 0x00, 0x06, 0xfb,
  0xfc, 0xfc, 0x00, 0xfd, 0x01, 0xfb, 0x06, 0xf9, 0xf8, 0xfd, 0x03, 0xf9,
  0x01, 0x0d, 0x16, 0xf8, 0xf6, 0x07, 0x01, 0x04, 0xfe, 0xff, 0xfe, 0xfd,
  0xf7, 0x01, 0x02, 0x00, 0xf7, 0x00, 0x06, 0x04, 0x07, 0xff, 0x08, 0xfc,
  0x01, 0xf6, 0xf0, 0x0a, 0x09, 0x0a, 0x01, 0x0a, 0xf8, 0xff, 0xf3, 0xff,
  0x05, 0x06, 0x05, 0xf7, 0x09, 0x00, 0x0a, 0xfb, 0xf9, 0x08, 0xfc, 0xf8,
  0x06, 0x00, 0x04, 0xfe, 0x08, 0xf6, 0xf4, 0xfa, 0x06, 0xfe, 0x01, 0x0b,
  0xf8, 0x06, 0xf5, 0x01, 0x08, 0x04, 0x08, 0x01, 0x0a, 0x00, 0x07, 0x09,
  0x09, 0xfc, 0x09, 0x08, 0xfb, 0xf7, 0x06, 0x09, 0xfd, 0xfb, 0x02, 0x04,
  0xfe, 0x04, 0x0d, 0x09, 0xf4, 0xfc, 0x04, 0x0a, 0xfa, 0x08, 0x06, 0x0b,
  0xfc, 0xfa, 0xf6, 0x08, 0xc3, 0xfb, 0x0a, 0x1a, 0x09, 0x10, 0x04, 0x06,
  0x04, 0x10, 0x16, 0xfe, 0xf0, 0x17, 0x10, 0x03, 0xed, 0x0f, 0xf5, 0xf4,
  0x03, 0x0c, 0x11, 0x18, 0x00, 0x13, 0x23, 0x06, 0x06, 0xf2, 0x0f, 0x17,
  0x0e, 0x0f, 0x16, 0xf2, 0xf8, 0x12, 0x1a, 0x02, 0x01, 0x08, 0x00, 0x17,
  0x0a, 0x0c, 0xff, 0xfb, 0x0d, 0xf3, 0x0e, 0xed, 0x05, 0x04, 0x02, 0x01,
  0x0b, 0x07, 0xfa, 0x0d, 0xf3, 0xf8, 0x10, 0x06, 0xf8, 0xf9, 0x03, 0x00,
  0xf6, 0xf9, 0xf7, 0x00, 0x00, 0xfa, 0x09, 0xfa, 0xfb, 0xfa, 0xf2, 0xfe,
  0x05, 0xf9, 0xf5, 0xf5, 0xff, 0xfa, 0x02, 0xf6, 0xfb, 0x03, 0x08, 0xf4,
  0x08, 0xfb, 0xfd, 0xff, 0xf9, 0xf4, 0xf5, 0x09, 0xff, 0xf9, 0x00, 0x08,
  0xfc, 0x02, 0xf7, 0xff, 0x02, 0xfd, 0x0a, 0x01, 0xfd, 0x03, 0x0a, 0xf3,
  0x03, 0x0a, 0xfa, 0x06, 0xf2, 0xfa, 0xfd, 0x09, 0xfe, 0xf5, 0x02, 0x0a,
  0xf5, 0xfb, 0xfa, 0x16, 0xf4, 0xd3, 0x09, 0x00, 0xfb, 0x00, 0x18, 0xfd,
  0x1b, 0xf9, 0x06, 0x04, 0xfc, 0x08, 0xfb, 0xfb, 0x0a, 0x04, 0x01, 0xec,
  0xf5, 0xf3, 0xf8, 0xf5, 0x02, 0xf9, 0x15, 0x01, 0x0a, 0x00, 0x06, 0x02,
  0xf5, 0xfa, 0xf4, 0x0c, 0x06, 0x06, 0xf3, 0x05, 0xf9, 0x0a, 0xf9, 0x08,
  0xfa, 0x04, 0x1a, 0x00, 0xff, 0x0c, 0xea, 0xf2, 0xfe, 0x0a, 0x08, 0xf3,
  0xfc, 0x12, 0x07, 0x0a, 0xfb, 0x04, 0x02, 0x03, 0x03, 0x03, 0x06, 0x09,
  0xfb, 0xf7, 0x08, 0xfa, 0xf3, 0xf9, 0x04, 0xf9, 0x07, 0xf8, 0x07, 0xf9,
  0x01, 0xf2, 0xfa, 0x02, 0xfe, 0x01, 0x07, 0x02, 0x01, 0xfa, 0x01, 0x09,
  0x0b, 0x06, 0x06, 0xfe, 0x00, 0x09, 0x00, 0xf4, 0xfc, 0x0a, 0x04, 0x0b,
  0x09, 0xf4, 0xf4, 0x06, 0xfa, 0xfc, 0x02, 0x0a, 0xfd, 0x02, 0x07, 0x02,
  0x07, 0xfa, 0x04, 0xfa, 0x01, 0x05, 0xf6, 0x03, 0x04, 0x06, 0x0f, 0xfe,
  0xfa, 0x81, 0x01, 0x07, 0x0b, 0xfd, 0x04, 0xf9, 0x07, 0xfb, 0x07, 0xf8,
  0x0f, 0x01, 0x05, 0xf7, 0xf6, 0x08, 0x08, 0x0c, 0xf6, 0xfa, 0x06, 0x17,
  0xfc, 0x0b, 0xff, 0xeb, 0xe8, 0x03, 0x03, 0x0e, 0x05, 0x11, 0xd8, 0xf5,
  0x04, 0x00, 0x0a, 0xfc, 0x02, 0x09, 0xfe, 0xf8, 0xf0, 0xfb, 0xe0, 0xff,
  0xef, 0x02, 0x10, 0xf5, 0x04, 0xff, 0xf6, 0xf5, 0xff, 0x0a, 0x0b, 0xfb,
  0xe1, 0xf6, 0x02, 0xf4, 0xff, 0xea, 0x0c, 0xe7, 0xfa, 0x04, 0x02, 0x04,
  0xf3, 0x05, 0xfb, 0x05, 0xe8, 0x13, 0xec, 0x1b, 0x0e, 0x0a, 0xfc, 0xf6,
  0x01, 0xfe, 0x0d, 0xb7, 0x0b, 0xf9, 0x12, 0xce, 0xe5, 0xcf, 0x07, 0xfe,
  0x02, 0xfa, 0x09, 0xfc, 0xfa, 0x0a, 0xf0, 0x02, 0x0b, 0xf4, 0xff, 0x08,
  0x0d, 0x0a, 0x12, 0xe9, 0x0a, 0x09, 0xf5, 0xf9, 0x0c, 0xfc, 0xfd, 0x13,
  0x10, 0xe2, 0x1a, 0xf4, 0xfb, 0x05, 0x06, 0xff, 0x04, 0x04, 0xf7, 0xf4,
  0x07, 0xf5, 0x07, 0x03, 0xf8, 0x05, 0xed, 0x03, 0xf9, 0x0b, 0xf8, 0xfb,
  0xf7, 0x03, 0x00, 0x06, 0xf4, 0xe3, 0xf3, 0xfe, 0xf8, 0x0f, 0xfb, 0xee,
  0x06, 0x05, 0x0c, 0xf7, 0x04, 0x02, 0xfd, 0xff, 0xf5, 0x01, 0xff, 0xe4,
  0x01, 0xfc, 0xf8, 0xf9, 0xfb, 0xfa, 0xf9, 0xf9, 0xf7, 0xf3, 0x06, 0xf2,
  0x04, 0x06, 0xfd, 0xea, 0x02, 0x06, 0xfd, 0x00, 0xf1, 0xf9, 0xf6, 0xe9,
  0xca, 0xe3, 0x02, 0xfa, 0xf5, 0xf5, 0x18, 0x07, 0x03, 0x04, 0xf0, 0xff,
  0xe9, 0x00, 0x08, 0xe4, 0x08, 0x05, 0x05, 0xf8, 0x07, 0x01, 0x03, 0xbb,
  0xf7, 0xf8, 0x04, 0x0f, 0xe3, 0x00, 0xf9, 0xec, 0x05, 0xc5, 0xf4, 0xfa,
  0x05, 0x03, 0xf2, 0xee, 0x0a, 0xea, 0xfd, 0x0d, 0xfa, 0x05, 0xd6, 0x02,
  0xf5, 0xfb, 0x15, 0xf3, 0xf9, 0xff, 0x09, 0xfa, 0xf1, 0xf5, 0x08, 0x07,
  0x21, 0x03, 0x05, 0xf9, 0xff, 0xff, 0xfa, 0xf8, 0xfd, 0x07, 0xfd, 0x06,
  0x07, 0xf1, 0xfb, 0x07, 0xf7, 0xee, 0x0a, 0x15, 0x0d, 0xf9, 0x08, 0x10,
  0x05, 0x07, 0xfd, 0xfd, 0x02, 0xfc, 0xfa, 0x0b, 0xf0, 0xf5, 0xf8, 0xfd,
  0xfe, 0xe9, 0x0a, 0x0d, 0x01, 0xfb, 0xfb, 0x08, 0xf6, 0xfc, 0x05, 0x10,
  0x09, 0xf9, 0x06, 0xe7, 0x02, 0x11, 0x09, 0x11, 0x15, 0x08, 0xf3, 0x19,
  0x0a, 0x05, 0xfe, 0x00, 0xfe, 0xee, 0xfa, 0x16, 0xf8, 0xd7, 0xf2, 0x02,
  0xff, 0x04, 0x08, 0x05, 0xfb, 0xff, 0xf9, 0x10, 0x08, 0x18, 0x09, 0x05,
  0x0b, 0x0b, 0xf6, 0x06, 0x09, 0xfe, 0x0e, 0xfe, 0x0a, 0xf8, 0x01, 0xfe,
  0x11, 0xf9, 0x02, 0xfa, 0xff, 0xf2, 0xef, 0xf5, 0xf6, 0x06, 0xf9, 0x02,
  0xf7, 0x0a, 0xf9, 0x0c, 0x03, 0x04, 0x17, 0xff, 0xfa, 0x0e, 0xf8, 0xf6,
  0xfc, 0xfe, 0xfe, 0xfd, 0x0a, 0x06, 0xfc, 0x02, 0xfd, 0x0b, 0x0a, 0xf7,
  0xfd, 0x01, 0x0b, 0x03, 0x06, 0x00, 0x0c, 0xfc, 0xfe, 0xf4, 0x06, 0xf2,
  0x09, 0xf9, 0xfa, 0x07, 0x0a, 0x06, 0x09, 0xfb, 0x0c, 0x04, 0x05, 0xff,
  0xfb, 0x11, 0x05, 0xf7, 0xf5, 0x03, 0xfc, 0x07, 0xfe, 0x00, 0x04, 0x01,
  0xfb, 0x09, 0x04, 0x01, 0x01, 0x06, 0x09, 0x08, 0x07, 0x04, 0xda, 0x0b,
  0x06, 0x0a, 0x06, 0x09, 0x07, 0x0a, 0xfe, 0xfb, 0xff, 0x01, 0xf5, 0x09,
  0x04, 0x03, 0x08, 0xf0, 0x07, 0xf9, 0xf6, 0xfa, 0x06, 0x0c, 0x15, 0xfb,
  0xfe, 0x19, 0xff, 0x05, 0xf6, 0xe5, 0xfd, 0xf0, 0xfe, 0xff, 0x01, 0x0e,
  0xf8, 0x10, 0x09, 0xf4, 0x09, 0xea, 0xf4, 0xff, 0x03, 0xf7, 0x00, 0x06,
  0x04, 0xfe, 0xfc, 0xfb, 0xfc, 0xfa, 0x13, 0xf9, 0x08, 0x0b, 0xfe, 0x0b,
  0xfe, 0x01, 0x05, 0xed, 0x11, 0xf8, 0x1e, 0xfe, 0x03, 0x09, 0xf3, 0x0f,
  0x0b, 0xf9, 0x01, 0x00, 0xf4, 0xfe, 0xf8, 0x0a, 0xf8, 0x04, 0x10, 0xf3,
  0xf9, 0x08, 0x06, 0xf9, 0xfc, 0x03, 0x06, 0x01, 0x00, 0x17, 0x09, 0x1b,
  0xec, 0xfd, 0xfe, 0xfa, 0xfc, 0x0b, 0x1e, 0xfa, 0x05, 0xf9, 0x05, 0x28,
  0xf3, 0xfe, 0xf4, 0xfa, 0x0a, 0x08, 0x02, 0x0c, 0x03, 0x07, 0x1c, 0x04,
  0x05, 0xf7, 0xfb, 0xf3, 0x06, 0xf3, 0x06, 0x00, 0xf6, 0x12, 0x01, 0xf1,
  0x01, 0xfc, 0xf7, 0x01, 0xf5, 0x0a, 0x04, 0x05, 0xfa, 0xfb, 0xfa, 0x02,
  0x00, 0x08, 0x09, 0xff, 0xf7, 0x03, 0x07, 0xff, 0x03, 0x0b, 0x07, 0x00,
  0xfa, 0xf3, 0xff, 0x0b, 0xfb, 0x00, 0x0a, 0x08, 0xff, 0x00, 0x08, 0x03,
  0x03, 0xf0, 0xff, 0x05, 0xff, 0x00, 0x0a, 0x09, 0xff, 0x0d, 0x0c, 0x02,
  0x02, 0x09, 0x0a, 0x05, 0x06, 0x0e, 0xfb, 0x06, 0xfd, 0xfb, 0xfc, 0x06,
  0x0c, 0x08, 0xfc, 0x0c, 0x06, 0x05, 0x0a, 0xfa, 0x07, 0x08, 0x00, 0xf7,
  0xfa, 0xf7, 0x03, 0x07, 0x0d, 0x01, 0x03, 0xfd, 0xf9, 0xfe, 0xfc, 0x07,
  0x01, 0xf7, 0xf4, 0xf4, 0x01, 0xf8, 0xf6, 0x09, 0xfc, 0xfa, 0x0b, 0x08,
  0xfc, 0xeb, 0x02, 0x08, 0xff, 0xfb, 0x04, 0x0c, 0x04, 0xf3, 0xe6, 0x00,
  0xfa, 0x05, 0xfa, 0x07, 0xff, 0x07, 0xff, 0x15, 0xf3, 0x04, 0x08, 0xef,
  0xfb, 0xea, 0xfd, 0x0a, 0x00, 0x0e, 0xee, 0x06, 0x04, 0x02, 0x06, 0x01,
  0xeb, 0xfa, 0xf7, 0x09, 0xf7, 0xf5, 0x06, 0x0c, 0xf3, 0x05, 0x04, 0x05,
  0x09, 0xfd, 0xf7, 0xf8, 0xf5, 0x09, 0xf2, 0x01, 0xfb, 0x05, 0x11, 0x00,
  0x05, 0xfc, 0xe5, 0x06, 0xfc, 0xf6, 0xf8, 0x05, 0x00, 0xfb, 0x0b, 0xfd,
  0x11, 0xfc, 0x00, 0x01, 0x00, 0x0a, 0x03, 0xf8, 0xfd, 0xf8, 0xfe, 0xfe,
  0x0b, 0x11, 0x01, 0xee, 0xfe, 0xfd, 0x10, 0x00, 0xec, 0x01, 0x02, 0xff,
  0x02, 0xfc, 0xf2, 0x08, 0xf5, 0xff, 0x19, 0xf7, 0xfe, 0xff, 0xff, 0xf9,
  0xfe, 0xf8, 0x09, 0xf5, 0x03, 0x03, 0xfe, 0xf8, 0x06, 0x0a, 0xfb, 0xfc,
  0xfc, 0x08, 0xff, 0x01, 0xf9, 0xff, 0xfe, 0xfb, 0x00, 0xf5, 0x02, 0xff,
  0x04, 0x0a, 0x05, 0xff, 0x00, 0xf7, 0x03, 0x01, 0x06, 0x03, 0xf4, 0xfc,
  0x02, 0xfa, 0x09, 0x04, 0xf8, 0xfb, 0x00, 0xff, 0xf8, 0x06, 0xff, 0xfd,
  0x05, 0xfd, 0x00, 0x01, 0x00, 0xfc, 0xf7, 0x0a, 0x06, 0x04, 0xf8, 0xf7,
  0x05, 0x01, 0xfd, 0xe9, 0x01, 0x06, 0x0a, 0x0a, 0xf9, 0x04, 0xfd, 0x03,
  0xf8, 0xfb, 0x03, 0xfe, 0xfd, 0xf7, 0xff, 0xfb, 0x03, 0xff, 0xfe, 0xff,
  0x04, 0xf7, 0x07, 0x05, 0x0a, 0xff, 0x0b, 0x0c, 0xfe, 0xfd, 0x04, 0xfb,
  0xf8, 0x00, 0x09, 0xfe, 0x00, 0x04, 0xfc, 0x09, 0xf6, 0x09, 0xfd, 0xff,
  0xfc, 0xfa, 0x0d, 0x06, 0x08, 0xf8, 0xfd, 0x02, 0x09, 0x07, 0xff, 0x09,
  0x02, 0x08, 0xfb, 0xf9, 0x07, 0xe5, 0x08, 0xf0, 0xfe, 0x10, 0xfb, 0xf9,
  0x09, 0x02, 0xff, 0xf6, 0xff, 0xe2, 0xfe, 0x07, 0xfa, 0xf8, 0x01, 0xfa,
  0x02, 0x1e, 0x08, 0xfe, 0x05, 0xf8, 0xfa, 0xd3, 0x06, 0x0c, 0x16, 0xfb,
  0xf3, 0x01, 0xee, 0xf7, 0xf4, 0xee, 0xe3, 0xf0, 0x0b, 0xf4, 0x03, 0xf9,
  0xf6, 0xfd, 0x05, 0x07, 0xfb, 0x09, 0xdb, 0xf9, 0x0c, 0x04, 0x05, 0x06,
  0x0b, 0xec, 0xf6, 0xf6, 0x08, 0xf0, 0x0a, 0xfe, 0x00, 0x00, 0x00, 0x00,
  0xbe, 0xf8, 0xff, 0xff, 0x04, 0x00, 0x00, 0x00, 0x00, 0x04, 0x00, 0x00,
  0xe2, 0xf2, 0xf9, 0xe9, 0xf9, 0xef, 0xe2, 0xfe, 0xf7, 0xf7, 0xef, 0x42,
  0xff, 0x40, 0x45, 0xe5, 0xe3, 0xf8, 0xf7, 0xd1, 0x2b, 0x16, 0x0e, 0xe7,
  0xde, 0x02, 0xec, 0xfa, 0x0a, 0x0e, 0xda, 0xdc, 0xf4, 0xfd, 0xf9, 0xe5,
  0xd2, 0xf6, 0x0c, 0x29, 0xfe, 0xf8, 0x04, 0x06, 0xfa, 0xd5, 0xf8, 0xe1,
  0x3b, 0x0f, 0xc4, 0xed, 0xf6, 0xea, 0x24, 0xc6, 0x02, 0x0a, 0xfa, 0xb4,
  0xcc, 0x24, 0xe8, 0x02, 0xda, 0xf7, 0xe8, 0x08, 0xe1, 0xf4, 0x04, 0xd3,
  0x02, 0x0c, 0x18, 0xf6, 0x14, 0xd9, 0x09, 0xe4, 0xbc, 0x12, 0x15, 0x18,
  0x0a, 0x0a, 0x0a, 0x06, 0x00, 0x0b, 0x13, 0x00, 0x04, 0x04, 0x05, 0xb7,
  0xe9, 0xeb, 0xf9, 0xf2, 0xf4, 0xeb, 0xe3, 0x26, 0x37, 0xe5, 0xfc, 0xfd,
  0xfa, 0xe8, 0xe7, 0xed, 0xff, 0xef, 0xd9, 0xe4, 0xfa, 0xdb, 0xf7, 0xfc,
  0xeb, 0x0f, 0xfb, 0xf6, 0xfe, 0x0f, 0xfd, 0x11, 0xfc, 0xd9, 0xf6, 0x11,
  0x0f, 0xda, 0xef, 0x1e, 0xea, 0xe0, 0x2f, 0xfd, 0xe9, 0xf9, 0xf5, 0xd5,
  0xde, 0x06, 0xf8, 0xe8, 0xd0, 0x1b, 0xd3, 0xd7, 0x23, 0x22, 0x19, 0xd0,
  0xd7, 0xf4, 0x1f, 0xd4, 0x01, 0x22, 0xc5, 0xe1, 0xd5, 0x0f, 0xfc, 0xd9,
  0x26, 0xf2, 0xee, 0xb4, 0xef, 0xdb, 0xee, 0x23, 0x06, 0xf3, 0x2b, 0x04,
  0x2a, 0xdc, 0xd1, 0xe2, 0xdc, 0xf8, 0x2f, 0xef, 0xe2, 0xd9, 0xc6, 0xf9,
  0xee, 0xfc, 0xd6, 0xdd, 0xfd, 0xf6, 0xe8, 0xbf, 0xcd, 0x0e, 0xd9, 0x13,
  0xe9, 0xeb, 0x0e, 0x29, 0x1e, 0x09, 0xe9, 0xc5, 0xf6, 0x0f, 0xcf, 0xdd,
  0x2a, 0x24, 0x1f, 0xc7, 0xce, 0xdd, 0xe1, 0xd4, 0xfd, 0xe8, 0xdf, 0xf8,
  0xd9, 0x12, 0x15, 0x24, 0xe7, 0x06, 0xf9, 0xc6, 0xfe, 0xfd, 0x07, 0xed,
  0xf5, 0x0b, 0xe3, 0xee, 0xd5, 0x0d, 0x0d, 0x0f, 0xec, 0xed, 0xee, 0xf6,
  0xf5, 0xd3, 0x16, 0x13, 0xe6, 0xf0, 0xc8, 0xce, 0xec, 0xfd, 0xee, 0xe0,
  0xfd, 0xde, 0x0d, 0x0e, 0x08, 0xf5, 0x1e, 0x02, 0xc9, 0x24, 0x2c, 0xdb,
  0xdb, 0xde, 0x11, 0x02, 0xea, 0xdc, 0xdc, 0xed, 0xde, 0x12, 0xf4, 0x19,
  0xc9, 0x19, 0xfd, 0x22, 0x13, 0xe8, 0xaf, 0xfd, 0xfa, 0xe6, 0xeb, 0x16,
  0xfc, 0xd3, 0x08, 0xdc, 0x06, 0xd0, 0x1d, 0xf8, 0x29, 0x18, 0xc7, 0xdb,
  0xed, 0xe6, 0x18, 0xd7, 0x04, 0xd9, 0x16, 0xca, 0xf7, 0xd4, 0xfc, 0x02,
  0xf9, 0xea, 0x14, 0xe8, 0xf0, 0xe1, 0xf0, 0xe7, 0xd9, 0x1b, 0xf6, 0x23,
  0x30, 0xd6, 0xc2, 0xbc, 0xe2, 0xd3, 0xef, 0x1a, 0x11, 0x05, 0x03, 0xfc,
  0xee, 0x11, 0x1f, 0xcd, 0x02, 0xea, 0xdb, 0x19, 0xeb, 0xe2, 0x19, 0xc9,
  0x04, 0x09, 0x1c, 0x03, 0x03, 0xf5, 0xbd, 0xf2, 0x00, 0xed, 0x01, 0xd5,
  0xfa, 0xfc, 0xfc, 0x11, 0xd4, 0x20, 0xde, 0xf6, 0x26, 0xd6, 0x1f, 0xc0,
  0xe7, 0xd5, 0xfa, 0xd7, 0x0a, 0xe7, 0x28, 0xe9, 0x01, 0xd5, 0x14, 0xe9,
  0xfb, 0xfe, 0xd6, 0xf2, 0xca, 0xdb, 0x18, 0xe4, 0xf3, 0x1f, 0xf2, 0x0b,
  0xc7, 0x07, 0xe5, 0xd6, 0xfc, 0xc1, 0x17, 0x05, 0xda, 0xde, 0xe9, 0x01,
  0xb8, 0x0d, 0xfa, 0x31, 0x0d, 0x01, 0x26, 0xfb, 0xdd, 0xbd, 0xf0, 0x11,
  0x0c, 0x1d, 0x14, 0xc8, 0x08, 0xc4, 0x0c, 0xfe, 0x0d, 0x16, 0x04, 0x01,
  0x00, 0x01, 0xfe, 0xfc, 0x0f, 0xec, 0xed, 0x14, 0xd6, 0x06, 0xe2, 0x24,
  0xd7, 0xea, 0xe4, 0xee, 0x12, 0x02, 0xd0, 0x04, 0xfd, 0xf4, 0xd0, 0xb8,
  0xba, 0x14, 0x16, 0xbe, 0xfb, 0xf0, 0xf4, 0xfd, 0xe6, 0x18, 0x03, 0xe1,
  0x26, 0x1a, 0x02, 0xef, 0x0f, 0xdc, 0xbb, 0x17, 0xf2, 0xb6, 0xd8, 0xe6,
  0xd4, 0xfa, 0xf0, 0x13, 0xfe, 0xef, 0xeb, 0xee, 0xed, 0xef, 0x38, 0xed,
  0x06, 0xc3, 0x0d, 0xfa, 0x19, 0x2e, 0xb6, 0xf2, 0xef, 0xbd, 0x05, 0x16,
  0xf6, 0xe4, 0xe2, 0x02, 0xf8, 0x12, 0xcf, 0xc9, 0x1d, 0xda, 0x28, 0x18,
  0x0f, 0xdf, 0xde, 0xe9, 0x0e, 0xfb, 0x0b, 0x08, 0x0b, 0x0e, 0x23, 0xfe,
  0x09, 0x06, 0x06, 0x0e, 0x12, 0xf8, 0xc8, 0xee, 0x81, 0xc3, 0xd7, 0xe1,
  0xf4, 0xed, 0x22, 0xe0, 0x09, 0xf5, 0x0e, 0x0d, 0xd5, 0x0b, 0xf0, 0xf2,
  0xcb, 0xca, 0xd7, 0xe9, 0x1d, 0x03, 0xc0, 0x1a, 0xf0, 0xf5, 0x0c, 0xf8,
  0xf2, 0x0c, 0x12, 0xe1, 0xe7, 0xed, 0xd5, 0xfb, 0x2e, 0xef, 0xf3, 0xd4,
  0xd8, 0x17, 0xf0, 0x0e, 0x03, 0x10, 0x0e, 0xfd, 0x05, 0xfb, 0xaf, 0x05,
  0x08, 0x08, 0x0b, 0x07, 0x00, 0xfd, 0xf8, 0xf8, 0xc1, 0xee, 0xe0, 0xdd,
  0x27, 0xfa, 0xeb, 0xfe, 0xf3, 0xe8, 0xde, 0xb0, 0x0a, 0x24, 0x28, 0x3c,
  0xf7, 0x22, 0x0a, 0xe7, 0xf7, 0xf1, 0xe8, 0xe6, 0xed, 0xf0, 0xeb, 0x0f,
  0xff, 0xfa, 0xde, 0xe9, 0x07, 0x1c, 0xd7, 0xeb, 0x12, 0xe9, 0xee, 0xdc,
  0x06, 0xe7, 0xd2, 0x01, 0x00, 0x16, 0xdc, 0xd6, 0xdc, 0xf0, 0xf0, 0xee,
  0xf4, 0x2c, 0x09, 0x00, 0xf8, 0xda, 0xde, 0x09, 0xe2, 0x07, 0xd9, 0xfc,
  0xd0, 0xfc, 0x0f, 0x0b, 0x02, 0x10, 0xbc, 0x0e, 0xfb, 0x04, 0x14, 0xf5,
  0xdf, 0xf1, 0xf2, 0xd0, 0x07, 0xa2, 0x27, 0x07, 0x02, 0x10, 0xf0, 0xd2,
  0xf5, 0x16, 0xfc, 0xd8, 0xce, 0xc8, 0xf7, 0x14, 0xd9, 0xe3, 0xf2, 0x12,
  0xe8, 0xfe, 0xfb, 0x15, 0xcf, 0x20, 0x15, 0xf9, 0xdd, 0xf3, 0xf4, 0xd2,
  0x2d, 0xf0, 0xcf, 0xe2, 0x23, 0xde, 0x15, 0xeb, 0xdd, 0xf7, 0x0a, 0xf7,
  0xbb, 0xf1, 0x06, 0xeb, 0x1e, 0xde, 0xdf, 0xd1, 0x09, 0xfd, 0x02, 0xd1,
  0x1a, 0x03, 0x05, 0xde, 0x03, 0xf9, 0xef, 0xd1, 0x11, 0xd9, 0xf8, 0xdd,
  0xf7, 0x0d, 0x22, 0xe4, 0x08, 0xe6, 0xd5, 0xf0, 0xe9, 0xcb, 0x24, 0x11,
  0xd3, 0xef, 0xee, 0xec, 0xf9, 0x0e, 0xf5, 0x0b, 0x03, 0xdd, 0xeb, 0xfc,
  0xd7, 0x0e, 0x07, 0xf6, 0xf6, 0x08, 0xe7, 0xe6, 0x08, 0xeb, 0x19, 0x09,
  0xe1, 0xda, 0xdf, 0xde, 0x14, 0xf6, 0x1a, 0xea, 0x05, 0xd3, 0xc3, 0xdb,
  0x1d, 0xf6, 0xed, 0x2e, 0x06, 0xf0, 0x0a, 0xb5, 0x22, 0xf8, 0xf2, 0xfd,
  0xf5, 0x05, 0xd7, 0xf3, 0x01, 0x00, 0x06, 0xf8, 0xee, 0x07, 0xe9, 0x01,
  0xdb, 0x01, 0x0b, 0x0c, 0xe3, 0xf5, 0xea, 0xf0, 0xf5, 0xed, 0xf6, 0xf2,
  0xde, 0x15, 0x2d, 0xf7, 0x29, 0xdd, 0xe6, 0xec, 0x15, 0xe8, 0xbc, 0x1c,
  0xcb, 0x1b, 0xff, 0x12, 0xe1, 0x20, 0xd6, 0xf2, 0x1b, 0xed, 0xd2, 0xe6,
  0xfb, 0xfb, 0xee, 0x00, 0xea, 0xd0, 0x0a, 0xb3, 0x85, 0xe7, 0xb6, 0x1a,
  0x20, 0x0a, 0xe2, 0xc8, 0xed, 0xdf, 0x2a, 0x27, 0x06, 0x04, 0xf8, 0xdc,
  0xe8, 0xe2, 0xf0, 0xf6, 0xe7, 0xfb, 0x16, 0xcd, 0x1e, 0x28, 0x13, 0xec,
  0xdf, 0xeb, 0xe9, 0xfd, 0xe3, 0xea, 0xe2, 0xe6, 0x19, 0xe4, 0xe2, 0xe6,
  0x23, 0xba, 0x00, 0xde, 0xd3, 0xd1, 0xd8, 0x06, 0xfa, 0xfb, 0x08, 0x1c,
  0xf7, 0xf2, 0xf7, 0xe3, 0x1b, 0x0f, 0x0d, 0x1a, 0xfd, 0x13, 0x14, 0xfe,
  0xff, 0xfd, 0xf9, 0xff, 0xfc, 0xfc, 0xfc, 0x1c, 0x1e, 0x07, 0x20, 0xd8,
  0xd6, 0xcb, 0x1d, 0x0f, 0x22, 0xef, 0xd0, 0xd3, 0xff, 0xf8, 0xf2, 0xa8,
  0x24, 0x08, 0xef, 0xed, 0xd8, 0xfd, 0x26, 0x00, 0xda, 0xd5, 0x0a, 0xdb,
  0xd8, 0xf4, 0xef, 0xc6, 0x0d, 0xdd, 0xde, 0xcd, 0xf1, 0xde, 0xf9, 0x16,
  0x11, 0xfd, 0xd9, 0xff, 0x0d, 0xef, 0xf2, 0xfa, 0x20, 0x17, 0xc8, 0xc9,
  0x14, 0xbb, 0xc7, 0x24, 0xe9, 0xe2, 0xea, 0x11, 0xd8, 0xfe, 0x05, 0xe6,
  0xea, 0xf9, 0xf6, 0x08, 0xd5, 0xfb, 0xcc, 0xfe, 0xe1, 0x15, 0x0a, 0x11,
  0x1b, 0xf9, 0xc4, 0xf9, 0x00, 0x00, 0x00, 0x00, 0xce, 0xfc, 0xff, 0xff,
  0x04, 0x00, 0x00, 0x00, 0x08, 0x00, 0x00, 0x00, 0xff, 0xff, 0xff, 0xff,
  0x10, 0x00, 0x00, 0x00, 0x00, 0x00, 0x00, 0x00, 0x00, 0x00, 0x00, 0x00,
  0x00, 0x00, 0x00, 0x00, 0xee, 0xfc, 0xff, 0xff, 0x04, 0x00, 0x00, 0x00,
  0x08, 0x00, 0x00, 0x00, 0x22, 0x0e, 0x00, 0x00, 0xde, 0xf1, 0xff, 0xff,
  0x00, 0x00, 0x00, 0x00, 0x00, 0x00, 0x00, 0x00, 0x00, 0x00, 0x00, 0x00,
  0x0e, 0xfd, 0xff, 0xff, 0x04, 0x00, 0x00, 0x00, 0x00, 0x01, 0x00, 0x00,
  0x1f, 0x02, 0x00, 0x00, 0x26, 0x00, 0x00, 0x00, 0x05, 0x02, 0x00, 0x00,
  0xf4, 0xff, 0xff, 0xff, 0xf1, 0xfd, 0xff, 0xff, 0xf2, 0xff, 0xff, 0xff,
  0x20, 0xfe, 0xff, 0xff, 0x2c, 0x00, 0x00, 0x00, 0xeb, 0xff, 0xff, 0xff,
  0xf8, 0x01, 0x00, 0x00, 0xf1, 0xff, 0xff, 0xff, 0x25, 0xfe, 0xff, 0xff,
  0x07, 0xfe, 0xff, 0xff, 0xdc, 0x01, 0x00, 0x00, 0x46, 0xff, 0xff, 0xff,
  0xfd, 0xff, 0xff, 0xff, 0xe7, 0x01, 0x00, 0x00, 0xfe, 0x01, 0x00, 0x00,
  0x9e, 0xff, 0xff, 0xff, 0x82, 0xff, 0xff, 0xff, 0x79, 0xff, 0xff, 0xff,
  0xfc, 0x01, 0x00, 0x00, 0x06, 0x02, 0x00, 0x00, 0xc8, 0xff, 0xff, 0xff,
  0x09, 0xfe, 0xff, 0xff, 0x05, 0xfe, 0xff, 0xff, 0xce, 0xff, 0xff, 0xff,
  0xfb, 0xfd, 0xff, 0xff, 0xf5, 0x01, 0x00, 0x00, 0x0f, 0x00, 0x00, 0x00,
  0xf4, 0x01, 0x00, 0x00, 0xf6, 0xff, 0xff, 0xff, 0xf7, 0x01, 0x00, 0x00,
  0x97, 0x00, 0x00, 0x00, 0xcd, 0xff, 0xff, 0xff, 0xfb, 0x01, 0x00, 0x00,
  0x04, 0xff, 0xff, 0xff, 0x09, 0xfe, 0xff, 0xff, 0x06, 0xfe, 0xff, 0xff,
  0xfd, 0xff, 0xff, 0xff, 0x07, 0x00, 0x00, 0x00, 0xf9, 0xff, 0xff, 0xff,
  0x69, 0xff, 0xff, 0xff, 0xf6, 0x01, 0x00, 0x00, 0xdd, 0xfd, 0xff, 0xff,
  0x13, 0xff, 0xff, 0xff, 0xfd, 0xff, 0xff, 0xff, 0x63, 0xfe, 0xff, 0xff,
  0xf8, 0xfd, 0xff, 0xff, 0xa3, 0x00, 0x00, 0x00, 0x4b, 0x00, 0x00, 0x00,
  0xf8, 0x01, 0x00, 0x00, 0x31, 0x01, 0x00, 0x00, 0xd0, 0xff, 0xff, 0xff,
  0x71, 0xff, 0xff, 0xff, 0x09, 0x02, 0x00, 0x00, 0xc3, 0xff, 0xff, 0xff,
  0xc4, 0xff, 0xff, 0xff, 0xf5, 0xfd, 0xff, 0xff, 0x4a, 0xfe, 0xff, 0xff,
  0xe7, 0xff, 0xff, 0xff, 0xfe, 0xff, 0xff, 0xff, 0x0e, 0x02, 0x00, 0x00,
  0x82, 0x01, 0x00, 0x00, 0x00, 0x00, 0x00, 0x00, 0x1e, 0xfe, 0xff, 0xff,
  0x04, 0x00, 0x00, 0x00, 0x00, 0x01, 0x00, 0x00, 0x62, 0xfc, 0xff, 0xff,
  0xed, 0xff, 0xff, 0xff, 0x14, 0xfd, 0xff, 0xff, 0x9a, 0xff, 0xff, 0xff,
  0x40, 0x01, 0x00, 0x00, 0x2a, 0xfc, 0xff, 0xff, 0x2f, 0xfe, 0xff, 0xff,
  0x64, 0xfe, 0xff, 0xff, 0x00, 0x00, 0x00, 0x00, 0xf3, 0xff, 0xff, 0xff,
  0x9b, 0xff, 0xff, 0xff, 0x04, 0x00, 0x00, 0x00, 0x0c, 0x00, 0x00, 0x00,
  0xfa, 0xff, 0xff, 0xff, 0x55, 0x00, 0x00, 0x00, 0x91, 0x00, 0x00, 0x00,
  0xf8, 0x00, 0x00, 0x00, 0xe5, 0xfe, 0xff, 0xff, 0x7d, 0xff, 0xff, 0xff,
  0xe1, 0xff, 0xff, 0xff, 0x69, 0xff, 0xff, 0xff, 0xf1, 0xff, 0xff, 0xff,
  0xbc, 0xff, 0xff, 0xff, 0x55, 0xff, 0xff, 0xff, 0x00, 0x00, 0x00, 0x00,
  0x99, 0xff, 0xff, 0xff, 0x65, 0xff, 0xff, 0xff, 0x35, 0xfc, 0xff, 0xff,
  0xfa, 0xff, 0xff, 0xff, 0x05, 0x00, 0x00, 0x00, 0x8e, 0x00, 0x00, 0x00,
  0x6e, 0xff, 0xff, 0xff, 0x94, 0xfe, 0xff, 0xff, 0x4b, 0xfb, 0xff, 0xff,
  0x4c, 0x00, 0x00, 0x00, 0x59, 0x00, 0x00, 0x00, 0x00, 0x00, 0x00, 0x00,
  0xae, 0xfc, 0xff, 0xff, 0x40, 0x00, 0x00, 0x00, 0xb7, 0x00, 0x00, 0x00,
  0x00, 0x00, 0x00, 0x00, 0x00, 0x00, 0x00, 0x00, 0xd7, 0xff, 0xff, 0xff,
  0x00, 0x00, 0x00, 0x00, 0xf5, 0xff, 0xff, 0xff, 0x6e, 0x00, 0x00, 0x00,
  0x07, 0x00, 0x00, 0x00, 0x89, 0x00, 0x00, 0x00, 0x97, 0x01, 0x00, 0x00,
  0xbd, 0x01, 0x00, 0x00, 0x49, 0xff, 0xff, 0xff, 0x59, 0xfc, 0xff, 0xff,
  0x93, 0xff, 0xff, 0xff, 0xde, 0xff, 0xff, 0xff, 0x14, 0x00, 0x00, 0x00,
  0xda, 0xff, 0xff, 0xff, 0x39, 0xfd, 0xff, 0xff, 0x39, 0x00, 0x00, 0x00,
  0x2b, 0xfc, 0xff, 0xff, 0xbf, 0xff, 0xff, 0xff, 0xbe, 0x00, 0x00, 0x00,
  0x19, 0x02, 0x00, 0x00, 0x28, 0x00, 0x00, 0x00, 0xc6, 0xff, 0xff, 0xff,
  0x00, 0x00, 0x00, 0x00, 0x00, 0x00, 0x00, 0x00, 0x00, 0x00, 0x00, 0x00,
  0x74, 0xf8, 0xff, 0xff, 0x00, 0x00, 0x00, 0x00, 0x00, 0x00, 0x00, 0x00,
  0x00, 0x00, 0x00, 0x00, 0x84, 0xf8, 0xff, 0xff, 0x00, 0x00, 0x00, 0x00,
  0x00, 0x00, 0x00, 0x00, 0x00, 0x00, 0x00, 0x00, 0x0f, 0x00, 0x00, 0x00,
  0x4d, 0x4c, 0x49, 0x52, 0x20, 0x43, 0x6f, 0x6e, 0x76, 0x65, 0x72, 0x74,
  0x65, 0x64, 0x2e, 0x00, 0x01, 0x00, 0x00, 0x00, 0x14, 0x00, 0x00, 0x00,
  0x00, 0x00, 0x0e, 0x00, 0x18, 0x00, 0x04, 0x00, 0x08, 0x00, 0x0c, 0x00,
  0x10, 0x00, 0x14, 0x00, 0x0e, 0x00, 0x00, 0x00, 0xcc, 0x01, 0x00, 0x00,
  0xc0, 0x01, 0x00, 0x00, 0xb4, 0x01, 0x00, 0x00, 0x14, 0x00, 0x00, 0x00,
  0x04, 0x00, 0x00, 0x00, 0x04, 0x00, 0x00, 0x00, 0x6d, 0x61, 0x69, 0x6e,
  0x00, 0x00, 0x00, 0x00, 0x07, 0x00, 0x00, 0x00, 0x78, 0x01, 0x00, 0x00,
  0x48, 0x01, 0x00, 0x00, 0xf8, 0x00, 0x00, 0x00, 0xac, 0x00, 0x00, 0x00,
  0x64, 0x00, 0x00, 0x00, 0x28, 0x00, 0x00, 0x00, 0x04, 0x00, 0x00, 0x00,
  0xae, 0xfe, 0xff, 0xff, 0x04, 0x00, 0x00, 0x00, 0x10, 0x00, 0x00, 0x00,
  0x04, 0x00, 0x00, 0x00, 0x01, 0x00, 0x00, 0x00, 0x0e, 0x00, 0x00, 0x00,
  0x01, 0x00, 0x00, 0x00, 0x0c, 0x00, 0x00, 0x00, 0x4a, 0xff, 0xff, 0xff,
  0x00, 0x00, 0x00, 0x09, 0x02, 0x00, 0x00, 0x00, 0x24, 0x00, 0x00, 0x00,
  0x18, 0x00, 0x00, 0x00, 0x0c, 0x00, 0x00, 0x00, 0x00, 0x00, 0x06, 0x00,
  0x08, 0x00, 0x04, 0x00, 0x06, 0x00, 0x00, 0x00, 0x00, 0x00, 0x80, 0x3f,
  0x01, 0x00, 0x00, 0x00, 0x0c, 0x00, 0x00, 0x00, 0x01, 0x00, 0x00, 0x00,
  0x0b, 0x00, 0x00, 0x00, 0xca, 0xff, 0xff, 0xff, 0x00, 0x00, 0x00, 0x08,
  0x01, 0x00, 0x00, 0x00, 0x18, 0x00, 0x00, 0x00, 0x0c, 0x00, 0x00, 0x00,
  0x04, 0x00, 0x00, 0x00, 0x74, 0xf9, 0xff, 0xff, 0x01, 0x00, 0x00, 0x00,
  0x0b, 0x00, 0x00, 0x00, 0x03, 0x00, 0x00, 0x00, 0x0a, 0x00, 0x00, 0x00,
  0x07, 0x00, 0x00, 0x00, 0x03, 0x00, 0x00, 0x00, 0x00, 0x00, 0x0e, 0x00,
  0x18, 0x00, 0x08, 0x00, 0x0c, 0x00, 0x10, 0x00, 0x07, 0x00, 0x14, 0x00,
  0x0e, 0x00, 0x00, 0x00, 0x00, 0x00, 0x00, 0x08, 0x01, 0x00, 0x00, 0x00,
  0x1c, 0x00, 0x00, 0x00, 0x10, 0x00, 0x00, 0x00, 0x04, 0x00, 0x00, 0x00,
  0xb6, 0xff, 0xff, 0xff, 0x00, 0x00, 0x00, 0x01, 0x01, 0x00, 0x00, 0x00,
  0x0a, 0x00, 0x00, 0x00, 0x03, 0x00, 0x00, 0x00, 0x09, 0x00, 0x00, 0x00,
  0x06, 0x00, 0x00, 0x00, 0x02, 0x00, 0x00, 0x00, 0x00, 0x00, 0x0e, 0x00,
  0x1a, 0x00, 0x08, 0x00, 0x0c, 0x00, 0x10, 0x00, 0x07, 0x00, 0x14, 0x00,
  0x0e, 0x00, 0x00, 0x00, 0x00, 0x00, 0x00, 0x08, 0x01, 0x00, 0x00, 0x00,
  0x24, 0x00, 0x00, 0x00, 0x18, 0x00, 0x00, 0x00, 0x0c, 0x00, 0x00, 0x00,
  0x00, 0x00, 0x06, 0x00, 0x08, 0x00, 0x07, 0x00, 0x06, 0x00, 0x00, 0x00,
  0x00, 0x00, 0x00, 0x01, 0x01, 0x00, 0x00, 0x00, 0x09, 0x00, 0x00, 0x00,
  0x03, 0x00, 0x00, 0x00, 0x08, 0x00, 0x00, 0x00, 0x05, 0x00, 0x00, 0x00,
  0x01, 0x00, 0x00, 0x00, 0x00, 0x00, 0x0a, 0x00, 0x0c, 0x00, 0x00, 0x00,
  0x04, 0x00, 0x08, 0x00, 0x0a, 0x00, 0x00, 0x00, 0x10, 0x00, 0x00, 0x00,
  0x04, 0x00, 0x00, 0x00, 0x01, 0x00, 0x00, 0x00, 0x08, 0x00, 0x00, 0x00,
  0x02, 0x00, 0x00, 0x00, 0x00, 0x00, 0x00, 0x00, 0x04, 0x00, 0x00, 0x00,
  0x00, 0x00, 0x0a, 0x00, 0x10, 0x00, 0x04, 0x00, 0x08, 0x00, 0x0c, 0x00,
  0x0a, 0x00, 0x00, 0x00, 0x03, 0x00, 0x00, 0x00, 0x10, 0x00, 0x00, 0x00,
  0x04, 0x00, 0x00, 0x00, 0x01, 0x00, 0x00, 0x00, 0x00, 0x00, 0x00, 0x00,
  0x01, 0x00, 0x00, 0x00, 0x0d, 0x00, 0x00, 0x00, 0x01, 0x00, 0x00, 0x00,
  0x0e, 0x00, 0x00, 0x00, 0x01, 0x00, 0x00, 0x00, 0x0d, 0x00, 0x00, 0x00,
  0x0f, 0x00, 0x00, 0x00, 0x38, 0x07, 0x00, 0x00, 0x9c, 0x06, 0x00, 0x00,
  0x0c, 0x06, 0x00, 0x00, 0x90, 0x05, 0x00, 0x00, 0x44, 0x05, 0x00, 0x00,
  0xc8, 0x04, 0x00, 0x00, 0x44, 0x04, 0x00, 0x00, 0xc0, 0x03, 0x00, 0x00,
  0x2c, 0x03, 0x00, 0x00, 0x70, 0x02, 0x00, 0x00, 0xac, 0x01, 0x00, 0x00,
  0x00, 0x01, 0x00, 0x00, 0x94, 0x00, 0x00, 0x00, 0x54, 0x00, 0x00, 0x00,
  0x04, 0x00, 0x00, 0x00, 0xc8, 0xff, 0xff, 0xff, 0x28, 0x00, 0x00, 0x00,
  0x14, 0x00, 0x00, 0x00, 0x04, 0x00, 0x00, 0x00, 0x02, 0x00, 0x00, 0x00,
  0xff, 0xff, 0xff, 0xff, 0x02, 0x00, 0x00, 0x00, 0x08, 0x00, 0x00, 0x00,
  0x49, 0x64, 0x65, 0x6e, 0x74, 0x69, 0x74, 0x79, 0x00, 0x00, 0x00, 0x00,
  0x02, 0x00, 0x00, 0x00, 0x01, 0x00, 0x00, 0x00, 0x02, 0x00, 0x00, 0x00,
  0x14, 0x00, 0x10, 0x00, 0x04, 0x00, 0x00, 0x00, 0x00, 0x00, 0x08, 0x00,
  0x00, 0x00, 0x00, 0x00, 0x00, 0x00, 0x0c, 0x00, 0x14, 0x00, 0x00, 0x00,
  0x2c, 0x00, 0x00, 0x00, 0x14, 0x00, 0x00, 0x00, 0x04, 0x00, 0x00, 0x00,
  0x02, 0x00, 0x00, 0x00, 0xff, 0xff, 0xff, 0xff, 0x10, 0x00, 0x00, 0x00,
  0x0d, 0x00, 0x00, 0x00, 0x66, 0x6c, 0x61, 0x74, 0x74, 0x65, 0x6e, 0x5f,
  0x69, 0x6e, 0x70, 0x75, 0x74, 0x00, 0x00, 0x00, 0x02, 0x00, 0x00, 0x00,
  0x01, 0x00, 0x00, 0x00, 0x10, 0x00, 0x00, 0x00, 0xa0, 0xf9, 0xff, 0xff,
  0x00, 0x00, 0x00, 0x09, 0x54, 0x00, 0x00, 0x00, 0x0d, 0x00, 0x00, 0x00,
  0x38, 0x00, 0x00, 0x00, 0x14, 0x00, 0x00, 0x00, 0x04, 0x00, 0x00, 0x00,
  0x02, 0x00, 0x00, 0x00, 0xff, 0xff, 0xff, 0xff, 0x02, 0x00, 0x00, 0x00,
  0x34, 0xfa, 0xff, 0xff, 0x14, 0x00, 0x00, 0x00, 0x04, 0x00, 0x00, 0x00,
  0x01, 0x00, 0x00, 0x00, 0x80, 0xff, 0xff, 0xff, 0xff, 0xff, 0xff, 0xff,
  0x01, 0x00, 0x00, 0x00, 0x00, 0x00, 0x80, 0x3b, 0x0d, 0x00, 0x00, 0x00,
  0x49, 0x64, 0x65, 0x6e, 0x74, 0x69, 0x74, 0x79, 0x5f, 0x69, 0x6e, 0x74,
  0x38, 0x00, 0x00, 0x00, 0x02, 0x00, 0x00, 0x00, 0x01, 0x00, 0x00, 0x00,
  0x02, 0x00, 0x00, 0x00, 0x08, 0xfa, 0xff, 0xff, 0x00, 0x00, 0x00, 0x09,
  0x94, 0x00, 0x00, 0x00, 0x0c, 0x00, 0x00, 0x00, 0x50, 0x00, 0x00, 0x00,
  0x14, 0x00, 0x00, 0x00, 0x04, 0x00, 0x00, 0x00, 0x02, 0x00, 0x00, 0x00,
  0xff, 0xff, 0xff, 0xff, 0x02, 0x00, 0x00, 0x00, 0xf4, 0xf9, 0xff, 0xff,
  0x2c, 0x00, 0x00, 0x00, 0x20, 0x00, 0x00, 0x00, 0x14, 0x00, 0x00, 0x00,
  0x04, 0x00, 0x00, 0x00, 0x01, 0x00, 0x00, 0x00, 0xe1, 0xff, 0xff, 0xff,
  0xff, 0xff, 0xff, 0xff, 0x01, 0x00, 0x00, 0x00, 0x00, 0xf0, 0xc0, 0x3e,
  0x01, 0x00, 0x00, 0x00, 0x21, 0xbb, 0x6e, 0x42, 0x01, 0x00, 0x00, 0x00,
  0x00, 0xa3, 0x11, 0xc2, 0x34, 0x00, 0x00, 0x00, 0x73, 0x65, 0x71, 0x75,
  0x65, 0x6e, 0x74, 0x69, 0x61, 0x6c, 0x2f, 0x64, 0x65, 0x6e, 0x73, 0x65,
  0x5f, 0x32, 0x2f, 0x4d, 0x61, 0x74, 0x4d, 0x75, 0x6c, 0x3b, 0x73, 0x65,
  0x71, 0x75, 0x65, 0x6e, 0x74, 0x69, 0x61, 0x6c, 0x2f, 0x64, 0x65, 0x6e,
  0x73, 0x65, 0x5f, 0x32, 0x2f, 0x42, 0x69, 0x61, 0x73, 0x41, 0x64, 0x64,
  0x00, 0x00, 0x00, 0x00, 0x02, 0x00, 0x00, 0x00, 0x01, 0x00, 0x00, 0x00,
  0x02, 0x00, 0x00, 0x00, 0xb0, 0xfa, 0xff, 0xff, 0x00, 0x00, 0x00, 0x09,
  0xac, 0x00, 0x00, 0x00, 0x0b, 0x00, 0x00, 0x00, 0x50, 0x00, 0x00, 0x00,
  0x14, 0x00, 0x00, 0x00, 0x04, 0x00, 0x00, 0x00, 0x02, 0x00, 0x00, 0x00,
  0xff, 0xff, 0xff, 0xff, 0x40, 0x00, 0x00, 0x00, 0x9c, 0xfa, 0xff, 0xff,
  0x2c, 0x00, 0x00, 0x00, 0x20, 0x00, 0x00, 0x00, 0x14, 0x00, 0x00, 0x00,
  0x04, 0x00, 0x00, 0x00, 0x01, 0x00, 0x00, 0x00, 0x80, 0xff, 0xff, 0xff,
  0xff, 0xff, 0xff, 0xff, 0x01, 0x00, 0x00, 0x00, 0x47, 0xd5, 0x43, 0x3e,
  0x01, 0x00, 0x00, 0x00, 0x72, 0x11, 0x43, 0x42, 0x01, 0x00, 0x00, 0x00,
  0x00, 0x00, 0x00, 0x00, 0x4c, 0x00, 0x00, 0x00, 0x73, 0x65, 0x71, 0x75,
  0x65, 0x6e, 0x74, 0x69, 0x61, 0x6c, 0x2f, 0x64, 0x65, 0x6e, 0x73, 0x65,
  0x5f, 0x31, 0x2f, 0x4d, 0x61, 0x74, 0x4d, 0x75, 0x6c, 0x3b, 0x73, 0x65,
  0x71, 0x75, 0x65, 0x6e, 0x74, 0x69, 0x61, 0x6c, 0x2f, 0x64, 0x65, 0x6e,
  0x73, 0x65, 0x5f, 0x31, 0x2f, 0x52, 0x65, 0x6c, 0x75, 0x3b, 0x73, 0x65,
  0x71, 0x75, 0x65, 0x6e, 0x74, 0x69, 0x61, 0x6c, 0x2f, 0x64, 0x65, 0x6e,
  0x73, 0x65, 0x5f, 0x31, 0x2f, 0x42, 0x69, 0x61, 0x73, 0x41, 0x64, 0x64,
  0x00, 0x00, 0x00, 0x00, 0x02, 0x00, 0x00, 0x00, 0x01, 0x00, 0x00, 0x00,
  0x40, 0x00, 0x00, 0x00, 0x70, 0xfb, 0xff, 0xff, 0x00, 0x00, 0x00, 0x09,
  0xa4, 0x00, 0x00, 0x00, 0x0a, 0x00, 0x00, 0x00, 0x50, 0x00, 0x00, 0x00,
  0x14, 0x00, 0x00, 0x00, 0x04, 0x00, 0x00, 0x00, 0x02, 0x00, 0x00, 0x00,
  0xff, 0xff, 0xff, 0xff, 0x40, 0x00, 0x00, 0x00, 0x5c, 0xfb, 0xff, 0xff,
  0x2c, 0x00, 0x00, 0x00, 0x20, 0x00, 0x00, 0x00, 0x14, 0x00, 0x00, 0x00,
  0x04, 0x00, 0x00, 0x00, 0x01, 0x00, 0x00, 0x00, 0x80, 0xff, 0xff, 0xff,
  0xff, 0xff, 0xff, 0xff, 0x01, 0x00, 0x00, 0x00, 0xa1, 0x34, 0xfd, 0x3e,
  0x01, 0x00, 0x00, 0x00, 0x6c, 0x37, 0xfc, 0x42, 0x01, 0x00, 0x00, 0x00,
  0x00, 0x00, 0x00, 0x00, 0x46, 0x00, 0x00, 0x00, 0x73, 0x65, 0x71, 0x75,
  0x65, 0x6e, 0x74, 0x69, 0x61, 0x6c, 0x2f, 0x64, 0x65, 0x6e, 0x73, 0x65,
  0x2f, 0x4d, 0x61, 0x74, 0x4d, 0x75, 0x6c, 0x3b, 0x73, 0x65, 0x71, 0x75,
  0x65, 0x6e, 0x74, 0x69, 0x61, 0x6c, 0x2f, 0x64, 0x65, 0x6e, 0x73, 0x65,
  0x2f, 0x52, 0x65, 0x6c, 0x75, 0x3b, 0x73, 0x65, 0x71, 0x75, 0x65, 0x6e,
  0x74, 0x69, 0x61, 0x6c, 0x2f, 0x64, 0x65, 0x6e, 0x73, 0x65, 0x2f, 0x42,
  0x69, 0x61, 0x73, 0x41, 0x64, 0x64, 0x00, 0x00, 0x02, 0x00, 0x00, 0x00,
  0x01, 0x00, 0x00, 0x00, 0x40, 0x00, 0x00, 0x00, 0x28, 0xfc, 0xff, 0xff,
  0x00, 0x00, 0x00, 0x09, 0x7c, 0x00, 0x00, 0x00, 0x09, 0x00, 0x00, 0x00,
  0x54, 0x00, 0x00, 0x00, 0x14, 0x00, 0x00, 0x00, 0x04, 0x00, 0x00, 0x00,
  0x02, 0x00, 0x00, 0x00, 0xff, 0xff, 0xff, 0xff, 0x10, 0x00, 0x00, 0x00,
  0x14, 0xfc, 0xff, 0xff, 0x30, 0x00, 0x00, 0x00, 0x24, 0x00, 0x00, 0x00,
  0x18, 0x00, 0x00, 0x00, 0x04, 0x00, 0x00, 0x00, 0x01, 0x00, 0x00, 0x00,
  0x80, 0xff, 0xff, 0xff, 0xff, 0xff, 0xff, 0xff, 0x00, 0x00, 0x00, 0x00,
  0x01, 0x00, 0x00, 0x00, 0xba, 0xb9, 0x39, 0x3f, 0x01, 0x00, 0x00, 0x00,
  0x00, 0x00, 0x39, 0x43, 0x01, 0x00, 0x00, 0x00, 0x00, 0x00, 0x00, 0x00,
  0x1a, 0x00, 0x00, 0x00, 0x73, 0x65, 0x71, 0x75, 0x65, 0x6e, 0x74, 0x69,
  0x61, 0x6c, 0x2f, 0x66, 0x6c, 0x61, 0x74, 0x74, 0x65, 0x6e, 0x2f, 0x52,
  0x65, 0x73, 0x68, 0x61, 0x70, 0x65, 0x00, 0x00, 0x02, 0x00, 0x00, 0x00,
  0x01, 0x00, 0x00, 0x00, 0x10, 0x00, 0x00, 0x00, 0x4a, 0xfd, 0xff, 0xff,
  0x00, 0x00, 0x00, 0x09, 0x6c, 0x00, 0x00, 0x00, 0x08, 0x00, 0x00, 0x00,
  0x44, 0x00, 0x00, 0x00, 0x04, 0x00, 0x00, 0x00, 0x94, 0xfc, 0xff, 0xff,
  0x30, 0x00, 0x00, 0x00, 0x24, 0x00, 0x00, 0x00, 0x18, 0x00, 0x00, 0x00,
  0x04, 0x00, 0x00, 0x00, 0x01, 0x00, 0x00, 0x00, 0x00, 0x00, 0x00, 0x00,
  0x00, 0x00, 0x00, 0x00, 0x00, 0x00, 0x00, 0x00, 0x01, 0x00, 0x00, 0x00,
  0xb7, 0xd0, 0xd2, 0x3b, 0x01, 0x00, 0x00, 0x00, 0x16, 0x2b, 0x51, 0x3f,
  0x01, 0x00, 0x00, 0x00, 0xc8, 0x55, 0x46, 0xbf, 0x19, 0x00, 0x00, 0x00,
  0x73, 0x65, 0x71, 0x75, 0x65, 0x6e, 0x74, 0x69, 0x61, 0x6c, 0x2f, 0x64,
  0x65, 0x6e, 0x73, 0x65, 0x5f, 0x32, 0x2f, 0x4d, 0x61, 0x74, 0x4d, 0x75,
  0x6c, 0x00, 0x00, 0x00, 0x02, 0x00, 0x00, 0x00, 0x02, 0x00, 0x00, 0x00,
  0x40, 0x00, 0x00, 0x00, 0xca, 0xfd, 0xff, 0xff, 0x00, 0x00, 0x00, 0x09,
  0x6c, 0x00, 0x00, 0x00, 0x07, 0x00, 0x00, 0x00, 0x44, 0x00, 0x00, 0x00,
  0x04, 0x00, 0x00, 0x00, 0x14, 0xfd, 0xff, 0xff, 0x30, 0x00, 0x00, 0x00,
  0x24, 0x00, 0x00, 0x00, 0x18, 0x00, 0x00, 0x00, 0x04, 0x00, 0x00, 0x00,
  0x01, 0x00, 0x00, 0x00, 0x00, 0x00, 0x00, 0x00, 0x00, 0x00, 0x00, 0x00,
  0x00, 0x00, 0x00, 0x00, 0x01, 0x00, 0x00, 0x00, 0x19, 0xb0, 0x96, 0x3c,
  0x01, 0x00, 0x00, 0x00, 0x30, 0x49, 0x41, 0x3f, 0x01, 0x00, 0x00, 0x00,
  0xb9, 0x82, 0x15, 0xc0, 0x19, 0x00, 0x00, 0x00, 0x73, 0x65, 0x71, 0x75,
  0x65, 0x6e, 0x74, 0x69, 0x61, 0x6c, 0x2f, 0x64, 0x65, 0x6e, 0x73, 0x65,
  0x5f, 0x31, 0x2f, 0x4d, 0x61, 0x74, 0x4d, 0x75, 0x6c, 0x00, 0x00, 0x00,
  0x02, 0x00, 0x00, 0x00, 0x40, 0x00, 0x00, 0x00, 0x40, 0x00, 0x00, 0x00,
  0x4a, 0xfe, 0xff, 0xff, 0x00, 0x00, 0x00, 0x09, 0x64, 0x00, 0x00, 0x00,
  0x06, 0x00, 0x00, 0x00, 0x40, 0x00, 0x00, 0x00, 0x04, 0x00, 0x00, 0x00,
  0x94, 0xfd, 0xff, 0xff, 0x2c, 0x00, 0x00, 0x00, 0x20, 0x00, 0x00, 0x00,
  0x14, 0x00, 0x00, 0x00, 0x04, 0x00, 0x00, 0x00, 0x01, 0x00, 0x00, 0x00,
  0x00, 0x00, 0x00, 0x00, 0x00, 0x00, 0x00, 0x00, 0x01, 0x00, 0x00, 0x00,
  0x77, 0x39, 0xbc, 0x3b, 0x01, 0x00, 0x00, 0x00, 0xe6, 0x50, 0xca, 0x3e,
  0x01, 0x00, 0x00, 0x00, 0x04, 0xc1, 0x3a, 0xbf, 0x17, 0x00, 0x00, 0x00,
  0x73, 0x65, 0x71, 0x75, 0x65, 0x6e, 0x74, 0x69, 0x61, 0x6c, 0x2f, 0x64,
  0x65, 0x6e, 0x73, 0x65, 0x2f, 0x4d, 0x61, 0x74, 0x4d, 0x75, 0x6c, 0x00,
  0x02, 0x00, 0x00, 0x00, 0x40, 0x00, 0x00, 0x00, 0x10, 0x00, 0x00, 0x00,
  0xc2, 0xfe, 0xff, 0xff, 0x00, 0x00, 0x00, 0x02, 0x38, 0x00, 0x00, 0x00,
  0x05, 0x00, 0x00, 0x00, 0x10, 0x00, 0x00, 0x00, 0x08, 0x00, 0x00, 0x00,
  0x04, 0x00, 0x04, 0x00, 0x04, 0x00, 0x00, 0x00, 0x18, 0x00, 0x00, 0x00,
  0x73, 0x65, 0x71, 0x75, 0x65, 0x6e, 0x74, 0x69, 0x61, 0x6c, 0x2f, 0x66,
  0x6c, 0x61, 0x74, 0x74, 0x65, 0x6e, 0x2f, 0x43, 0x6f, 0x6e, 0x73, 0x74,
  0x00, 0x00, 0x00, 0x00, 0x01, 0x00, 0x00, 0x00, 0x02, 0x00, 0x00, 0x00,
  0x0a, 0xff, 0xff, 0xff, 0x00, 0x00, 0x00, 0x02, 0x68, 0x00, 0x00, 0x00,
  0x04, 0x00, 0x00, 0x00, 0x28, 0x00, 0x00, 0x00, 0x04, 0x00, 0x00, 0x00,
  0xfc, 0xfe, 0xff, 0xff, 0x14, 0x00, 0x00, 0x00, 0x04, 0x00, 0x00, 0x00,
  0x01, 0x00, 0x00, 0x00, 0x00, 0x00, 0x00, 0x00, 0x00, 0x00, 0x00, 0x00,
  0x01, 0x00, 0x00, 0x00, 0x9e, 0x44, 0xa1, 0x3a, 0x32, 0x00, 0x00, 0x00,
  0x73, 0x65, 0x71, 0x75, 0x65, 0x6e, 0x74, 0x69, 0x61, 0x6c, 0x2f, 0x64,
  0x65, 0x6e, 0x73, 0x65, 0x5f, 0x32, 0x2f, 0x42, 0x69, 0x61, 0x73, 0x41,
  0x64, 0x64, 0x2f, 0x52, 0x65, 0x61, 0x64, 0x56, 0x61, 0x72, 0x69, 0x61,
  0x62, 0x6c, 0x65, 0x4f, 0x70, 0x2f, 0x72, 0x65, 0x73, 0x6f, 0x75, 0x72,
  0x63, 0x65, 0x00, 0x00, 0x01, 0x00, 0x00, 0x00, 0x02, 0x00, 0x00, 0x00,
  0x82, 0xff, 0xff, 0xff, 0x00, 0x00, 0x00, 0x02, 0x6c, 0x00, 0x00, 0x00,
  0x03, 0x00, 0x00, 0x00, 0x2c, 0x00, 0x00, 0x00, 0x04, 0x00, 0x00, 0x00,
  0x74, 0xff, 0xff, 0xff, 0x18, 0x00, 0x00, 0x00, 0x04, 0x00, 0x00, 0x00,
  0x01, 0x00, 0x00, 0x00, 0x00, 0x00, 0x00, 0x00, 0x00, 0x00, 0x00, 0x00,
  0x00, 0x00, 0x00, 0x00, 0x01, 0x00, 0x00, 0x00, 0x03, 0x0b, 0x15, 0x3c,
  0x32, 0x00, 0x00, 0x00, 0x73, 0x65, 0x71, 0x75, 0x65, 0x6e, 0x74, 0x69,
  0x61, 0x6c, 0x2f, 0x64, 0x65, 0x6e, 0x73, 0x65, 0x5f, 0x31, 0x2f, 0x42,
  0x69, 0x61, 0x73, 0x41, 0x64, 0x64, 0x2f, 0x52, 0x65, 0x61, 0x64, 0x56,
  0x61, 0x72, 0x69, 0x61, 0x62, 0x6c, 0x65, 0x4f, 0x70, 0x2f, 0x72, 0x65,
  0x73, 0x6f, 0x75, 0x72, 0x63, 0x65, 0x00, 0x00, 0x01, 0x00, 0x00, 0x00,
  0x40, 0x00, 0x00, 0x00, 0x00, 0x00, 0x0e, 0x00, 0x18, 0x00, 0x08, 0x00,
  0x07, 0x00, 0x0c, 0x00, 0x10, 0x00, 0x14, 0x00, 0x0e, 0x00, 0x00, 0x00,
  0x00, 0x00, 0x00, 0x02, 0x74, 0x00, 0x00, 0x00, 0x02, 0x00, 0x00, 0x00,
  0x34, 0x00, 0x00, 0x00, 0x10, 0x00, 0x00, 0x00, 0x0c, 0x00, 0x0c, 0x00,
  0x00, 0x00, 0x00, 0x00, 0x04, 0x00, 0x08, 0x00, 0x0c, 0x00, 0x00, 0x00,
  0x14, 0x00, 0x00, 0x00, 0x04, 0x00, 0x00, 0x00, 0x01, 0x00, 0x00, 0x00,
  0x00, 0x00, 0x00, 0x00, 0x00, 0x00, 0x00, 0x00, 0x01, 0x00, 0x00, 0x00,
  0x15, 0x8e, 0x88, 0x3b, 0x30, 0x00, 0x00, 0x00, 0x73, 0x65, 0x71, 0x75,
  0x65, 0x6e, 0x74, 0x69, 0x61, 0x6c, 0x2f, 0x64, 0x65, 0x6e, 0x73, 0x65,
  0x2f, 0x42, 0x69, 0x61, 0x73, 0x41, 0x64, 0x64, 0x2f, 0x52, 0x65, 0x61,
  0x64, 0x56, 0x61, 0x72, 0x69, 0x61, 0x62, 0x6c, 0x65, 0x4f, 0x70, 0x2f,
  0x72, 0x65, 0x73, 0x6f, 0x75, 0x72, 0x63, 0x65, 0x00, 0x00, 0x00, 0x00,
  0x01, 0x00, 0x00, 0x00, 0x40, 0x00, 0x00, 0x00, 0x14, 0x00, 0x1c, 0x00,
  0x08, 0x00, 0x07, 0x00, 0x0c, 0x00, 0x10, 0x00, 0x14, 0x00, 0x00, 0x00,
  0x00, 0x00, 0x18, 0x00, 0x14, 0x00, 0x00, 0x00, 0x00, 0x00, 0x00, 0x09,
  0x80, 0x00, 0x00, 0x00, 0x01, 0x00, 0x00, 0x00, 0x60, 0x00, 0x00, 0x00,
  0x20, 0x00, 0x00, 0x00, 0x04, 0x00, 0x00, 0x00, 0x02, 0x00, 0x00, 0x00,
  0xff, 0xff, 0xff, 0xff, 0x10, 0x00, 0x00, 0x00, 0x0c, 0x00, 0x14, 0x00,
  0x04, 0x00, 0x08, 0x00, 0x0c, 0x00, 0x10, 0x00, 0x0c, 0x00, 0x00, 0x00,
  0x30, 0x00, 0x00, 0x00, 0x24, 0x00, 0x00, 0x00, 0x18, 0x00, 0x00, 0x00,
  0x04, 0x00, 0x00, 0x00, 0x01, 0x00, 0x00, 0x00, 0x80, 0xff, 0xff, 0xff,
  0xff, 0xff, 0xff, 0xff, 0x00, 0x00, 0x00, 0x00, 0x01, 0x00, 0x00, 0x00,
  0xba, 0xb9, 0x39, 0x3f, 0x01, 0x00, 0x00, 0x00, 0x00, 0x00, 0x39, 0x43,
  0x01, 0x00, 0x00, 0x00, 0x00, 0x00, 0x00, 0x00, 0x12, 0x00, 0x00, 0x00,
  0x66, 0x6c, 0x61, 0x74, 0x74, 0x65, 0x6e, 0x5f, 0x69, 0x6e, 0x70, 0x75,
  0x74, 0x5f, 0x69, 0x6e, 0x74, 0x38, 0x00, 0x00, 0x02, 0x00, 0x00, 0x00,
  0x01, 0x00, 0x00, 0x00, 0x10, 0x00, 0x00, 0x00, 0x05, 0x00, 0x00, 0x00,
  0x68, 0x00, 0x00, 0x00, 0x48, 0x00, 0x00, 0x00, 0x28, 0x00, 0x00, 0x00,
  0x18, 0x00, 0x00, 0x00, 0x04, 0x00, 0x00, 0x00, 0xd4, 0xff, 0xff, 0xff,
  0x00, 0x00, 0x00, 0x06, 0x02, 0x00, 0x00, 0x00, 0x06, 0x00, 0x00, 0x00,
  0xc8, 0xff, 0xff, 0xff, 0x00, 0x00, 0x00, 0x72, 0x72, 0x00, 0x00, 0x00,
  0xf0, 0xff, 0xff, 0xff, 0x00, 0x00, 0x00, 0x19, 0x02, 0x00, 0x00, 0x00,
  0x19, 0x00, 0x00, 0x00, 0x0c, 0x00, 0x10, 0x00, 0x07, 0x00, 0x00, 0x00,
  0x08, 0x00, 0x0c, 0x00, 0x0c, 0x00, 0x00, 0x00, 0x00, 0x00, 0x00, 0x09,
  0x04, 0x00, 0x00, 0x00, 0x09, 0x00, 0x00, 0x00, 0x0c, 0x00, 0x0c, 0x00,
  0x07, 0x00, 0x00, 0x00, 0x00, 0x00, 0x08, 0x00, 0x0c, 0x00, 0x00, 0x00,
  0x00, 0x00, 0x00, 0x16, 0x16, 0x00, 0x00, 0x00
    };
const int g_model_len = 8864;