unsigned char model_data_LED_model_quantized_tflite[] = {
  0x20, 0x00, 0x00, 0x00, 0x54, 0x46, 0x4c, 0x33, 0x00, 0x00, 0x00, 0x00,
  0x00, 0x00, 0x12, 0x00, 0x1c, 0x00, 0x04, 0x00, 0x08, 0x00, 0x0c, 0x00,
  0x10, 0x00, 0x14, 0x00, 0x00, 0x00, 0x18, 0x00, 0x12, 0x00, 0x00, 0x00,
  0x03, 0x00, 0x00, 0x00, 0xc0, 0x0e, 0x00, 0x00, 0x04, 0x07, 0x00, 0x00,
  0xec, 0x06, 0x00, 0x00, 0x3c, 0x00, 0x00, 0x00, 0x04, 0x00, 0x00, 0x00,
  0x01, 0x00, 0x00, 0x00, 0x0c, 0x00, 0x00, 0x00, 0x08, 0x00, 0x0c, 0x00,
  0x04, 0x00, 0x08, 0x00, 0x08, 0x00, 0x00, 0x00, 0x08, 0x00, 0x00, 0x00,
  0x0b, 0x00, 0x00, 0x00, 0x13, 0x00, 0x00, 0x00, 0x6d, 0x69, 0x6e, 0x5f,
  0x72, 0x75, 0x6e, 0x74, 0x69, 0x6d, 0x65, 0x5f, 0x76, 0x65, 0x72, 0x73,
  0x69, 0x6f, 0x6e, 0x00, 0x0c, 0x00, 0x00, 0x00, 0x98, 0x06, 0x00, 0x00,
  0x84, 0x06, 0x00, 0x00, 0x68, 0x05, 0x00, 0x00, 0x44, 0x05, 0x00, 0x00,
  0x20, 0x05, 0x00, 0x00, 0x0c, 0x01, 0x00, 0x00, 0x78, 0x00, 0x00, 0x00,
  0x6c, 0x00, 0x00, 0x00, 0x58, 0x00, 0x00, 0x00, 0x44, 0x00, 0x00, 0x00,
  0x30, 0x00, 0x00, 0x00, 0x04, 0x00, 0x00, 0x00, 0xe2, 0xf8, 0xff, 0xff,
  0x04, 0x00, 0x00, 0x00, 0x10, 0x00, 0x00, 0x00, 0x31, 0x2e, 0x35, 0x2e,
  0x30, 0x00, 0x00, 0x00, 0x00, 0x00, 0x00, 0x00, 0x00, 0x00, 0x00, 0x00,
  0x00, 0x00, 0x00, 0x00, 0x00, 0x00, 0x00, 0x00, 0x00, 0x00, 0x00, 0x00,
  0xcc, 0xf3, 0xff, 0xff, 0x00, 0x00, 0x00, 0x00, 0x00, 0x00, 0x00, 0x00,
  0x00, 0x00, 0x00, 0x00, 0xdc, 0xf3, 0xff, 0xff, 0x00, 0x00, 0x00, 0x00,
  0x00, 0x00, 0x00, 0x00, 0x00, 0x00, 0x00, 0x00, 0xec, 0xf3, 0xff, 0xff,
  0x00, 0x00, 0x00, 0x00, 0x00, 0x00, 0x00, 0x00, 0x00, 0x00, 0x00, 0x00,
  0xfc, 0xf3, 0xff, 0xff, 0x00, 0x00, 0x00, 0x00, 0x42, 0xf9, 0xff, 0xff,
  0x04, 0x00, 0x00, 0x00, 0x80, 0x00, 0x00, 0x00, 0x12, 0x40, 0x4c, 0x1d,
  0xe5, 0x2c, 0x36, 0x07, 0x03, 0xc0, 0x1e, 0x0f, 0x1b, 0x02, 0x4c, 0xf7,
  0xb7, 0x2b, 0xe0, 0x53, 0xa8, 0x9f, 0x15, 0xb6, 0xfd, 0xc3, 0x10, 0x2b,
  0xe4, 0x03, 0x1f, 0x1a, 0xc9, 0xf1, 0x27, 0xf1, 0xaf, 0x3d, 0xf1, 0xd6,
  0x12, 0x4a, 0x32, 0x4f, 0x18, 0xf8, 0x6e, 0xc5, 0xda, 0x91, 0x0a, 0x4a,
  0x2d, 0xee, 0x3d, 0xc8, 0xfa, 0xea, 0xbb, 0xdb, 0xc7, 0xe5, 0xc7, 0xf4,
  0x3b, 0x04, 0x2b, 0xe3, 0xff, 0xe3, 0xdd, 0xbb, 0x02, 0x67, 0x41, 0x57,
  0xf2, 0x4f, 0x11, 0x0b, 0xdd, 0x18, 0x0a, 0xff, 0x15, 0x02, 0xc9, 0xfa,
  0x18, 0xd5, 0x4c, 0xc6, 0xf6, 0xb8, 0xe6, 0x6a, 0x04, 0x26, 0x1b, 0xd6,
  0xbe, 0xa5, 0x38, 0x03, 0xca, 0xb6, 0x2f, 0xb5, 0x4a, 0xb3, 0x81, 0x3c,
  0x55, 0xcf, 0x45, 0x1b, 0xda, 0x25, 0xea, 0x46, 0x45, 0x2c, 0x0d, 0x3b,
  0xe6, 0xaf, 0xec, 0x08, 0x00, 0x00, 0x00, 0x00, 0xd2, 0xf9, 0xff, 0xff,
  0x04, 0x00, 0x00, 0x00, 0x00, 0x04, 0x00, 0x00, 0xfc, 0xfe, 0xfd, 0xfd,
  0xfe, 0xfb, 0xf9, 0xfc, 0xf3, 0xf7, 0xf1, 0x0b, 0x28, 0x29, 0x2c, 0xc1,
  0x00, 0x09, 0xfd, 0xe3, 0x1a, 0x07, 0x02, 0xeb, 0xe5, 0x09, 0xfb, 0xfa,
  0x01, 0xfe, 0xed, 0xe7, 0x15, 0x00, 0xfb, 0xf5, 0xe5, 0xf0, 0x0b, 0x12,
  0x00, 0x07, 0x08, 0x02, 0x10, 0xf2, 0x12, 0xf6, 0x21, 0xfd, 0xed, 0xea,
  0xef, 0x00, 0x0a, 0xe4, 0xfd, 0x01, 0xec, 0xdd, 0xdf, 0x12, 0xec, 0xfb,
  0xe3, 0x01, 0xf0, 0xf1, 0xf1, 0xf5, 0x0d, 0xcf, 0x0d, 0x1b, 0x0e, 0xea,
  0x08, 0xf6, 0xf7, 0xe1, 0xe2, 0x1a, 0x21, 0x12, 0x1f, 0x1d, 0x24, 0x01,
  0xf2, 0x00, 0xdf, 0x00, 0xef, 0x17, 0x04, 0xe5, 0xfa, 0x0e, 0x0c, 0xee,
  0x12, 0xf3, 0x0b, 0x06, 0x17, 0xf9, 0x02, 0x18, 0x06, 0x00, 0xee, 0xee,
  0x04, 0x07, 0xe1, 0xe5, 0x1b, 0xe4, 0x07, 0x0d, 0xfb, 0x04, 0x0d, 0x08,
  0x03, 0x15, 0x09, 0x11, 0xfd, 0xe0, 0xf8, 0x0e, 0x0c, 0xe1, 0xf2, 0x18,
  0xee, 0xe6, 0x26, 0xfd, 0xee, 0xfa, 0xf7, 0xdd, 0xd9, 0x06, 0x00, 0xf4,
  0xe3, 0x18, 0xe1, 0xd9, 0x0f, 0x1e, 0x16, 0xe4, 0xdf, 0xed, 0x1a, 0xe9,
  0x2f, 0xf3, 0xcb, 0xeb, 0xc3, 0x05, 0x36, 0xc8, 0x1a, 0x36, 0x02, 0xc3,
  0xf8, 0xe1, 0xa6, 0x4b, 0x08, 0x06, 0x2e, 0x07, 0x26, 0xee, 0xee, 0xe9,
  0xff, 0x01, 0x2f, 0xf0, 0x09, 0xfe, 0xe6, 0x04, 0xe7, 0x05, 0xd9, 0x04,
  0x09, 0xf7, 0xf3, 0xe2, 0xdb, 0x14, 0xdd, 0x17, 0xf6, 0xfa, 0xf7, 0x15,
  0x1a, 0x26, 0xef, 0xea, 0x1c, 0x0d, 0xf1, 0xe4, 0x1e, 0x06, 0x16, 0x09,
  0xf1, 0x26, 0xe6, 0xfe, 0xfb, 0x0c, 0x00, 0x02, 0xe1, 0x14, 0x0b, 0x18,
  0xf3, 0x0c, 0x08, 0xeb, 0x07, 0x15, 0x15, 0xe9, 0xe0, 0x17, 0x08, 0x81,
  0x19, 0xdc, 0x22, 0x16, 0xe8, 0x1e, 0xce, 0xfc, 0xa7, 0xeb, 0x35, 0x2b,
  0x03, 0x04, 0xe6, 0xe3, 0xe4, 0x05, 0x0a, 0x06, 0x06, 0xf8, 0x14, 0x00,
  0x13, 0xfe, 0x12, 0x1b, 0xf1, 0x0f, 0x00, 0x0e, 0x17, 0xe9, 0x11, 0x11,
  0xe8, 0xb7, 0xc9, 0x0f, 0x30, 0xf7, 0x1e, 0xe3, 0xce, 0xfd, 0xfa, 0x38,
  0xe9, 0xf2, 0xf4, 0xde, 0x11, 0xe0, 0x0a, 0x4a, 0x3e, 0xe5, 0xe9, 0xd5,
  0x0b, 0xed, 0x26, 0x11, 0x1b, 0x08, 0xf6, 0xf0, 0xec, 0xfc, 0x13, 0xf0,
  0x11, 0xf5, 0x0c, 0xf7, 0x03, 0xe8, 0x14, 0xfe, 0x12, 0xfa, 0x23, 0xfb,
  0x00, 0xfb, 0x08, 0xff, 0xde, 0x19, 0x01, 0x1e, 0x28, 0x88, 0x0d, 0x0e,
  0xfa, 0xea, 0xcc, 0xe8, 0x1b, 0x3e, 0xf7, 0x9b, 0xd2, 0x1b, 0x36, 0xe0,
  0x21, 0x00, 0xe5, 0x21, 0xf4, 0xe8, 0x20, 0xfc, 0x0e, 0xff, 0x12, 0x01,
  0x15, 0x1e, 0xe1, 0xf1, 0x1a, 0x19, 0x07, 0xe1, 0xf3, 0xef, 0x0a, 0x15,
  0x09, 0x1e, 0xeb, 0x13, 0x13, 0xf9, 0x13, 0xe5, 0xec, 0xdd, 0xfc, 0xdf,
  0x08, 0xec, 0x21, 0xee, 0x01, 0xdd, 0x10, 0xee, 0xfc, 0xff, 0xde, 0xf4,
  0xe0, 0x06, 0x2a, 0xd3, 0xef, 0x2f, 0xec, 0xef, 0xd5, 0x34, 0x13, 0xd6,
  0x0c, 0x00, 0x23, 0xed, 0x03, 0x02, 0xd9, 0xf9, 0xd0, 0x16, 0xe9, 0x21,
  0x02, 0xea, 0x14, 0xf8, 0xea, 0xd0, 0xef, 0x08, 0xff, 0x18, 0x0d, 0xd8,
  0x04, 0xe1, 0x03, 0xfd, 0x17, 0x0c, 0x08, 0xfe, 0x11, 0x01, 0x0c, 0x09,
  0x0f, 0xf0, 0xed, 0x13, 0xdf, 0x08, 0xea, 0x20, 0xe4, 0xf1, 0xec, 0xf1,
  0x11, 0x04, 0xd3, 0x06, 0x0c, 0xf4, 0xf0, 0xe6, 0xd2, 0x1a, 0x1c, 0x9f,
  0x08, 0xc2, 0x0e, 0xfe, 0xf2, 0x08, 0x02, 0xe3, 0x1f, 0x1e, 0x09, 0xf4,
  0x01, 0xf8, 0x02, 0x15, 0xf4, 0xf0, 0xf2, 0xf6, 0xf7, 0x02, 0xfe, 0xfc,
  0x13, 0x04, 0x00, 0x0f, 0xed, 0x07, 0x1e, 0x01, 0xea, 0x05, 0x05, 0xf9,
  0x16, 0x1f, 0xe3, 0xff, 0xe4, 0x06, 0x11, 0x13, 0x13, 0xdc, 0x01, 0xff,
  0x08, 0x28, 0xf5, 0xe2, 0x13, 0xf8, 0x21, 0x0f, 0x04, 0xc4, 0xe4, 0xee,
  0x1e, 0x0d, 0x1a, 0x16, 0x0c, 0x08, 0x03, 0x05, 0x03, 0x00, 0xff, 0xff,
  0x03, 0xf5, 0xec, 0x04, 0xe0, 0xf5, 0xe1, 0xfc, 0xee, 0xfc, 0x19, 0xe1,
  0x09, 0xeb, 0x03, 0x00, 0x03, 0x33, 0x16, 0x02, 0xc7, 0xe9, 0xca, 0xa8,
  0x11, 0x12, 0x07, 0x24, 0x0d, 0x04, 0x08, 0xf8, 0xf5, 0x09, 0x0e, 0xe6,
  0xeb, 0xf0, 0xde, 0xfb, 0x25, 0xf3, 0xf5, 0xdc, 0xdf, 0x12, 0xf1, 0x0b,
  0x0d, 0x12, 0x13, 0x0f, 0xe1, 0xd7, 0xe3, 0x05, 0xe1, 0x0c, 0xf8, 0xfd,
  0xd8, 0xd8, 0xd3, 0x09, 0xef, 0x2b, 0xe6, 0x01, 0x1f, 0x0a, 0xed, 0x00,
  0x11, 0xf7, 0xff, 0xe6, 0x00, 0x13, 0x0d, 0x12, 0x02, 0xfe, 0x09, 0x05,
  0x09, 0x09, 0xfa, 0xb5, 0xf6, 0x00, 0x06, 0x29, 0x17, 0x09, 0xf1, 0x05,
  0x05, 0x17, 0xdf, 0xef, 0x0f, 0xed, 0xf1, 0xe2, 0x05, 0xeb, 0xdb, 0x01,
  0x00, 0x12, 0xe3, 0xdd, 0xe3, 0xf3, 0xf3, 0xf2, 0xf6, 0x24, 0x07, 0x00,
  0xf9, 0xe1, 0xe4, 0x08, 0xe7, 0x06, 0xe1, 0xfd, 0xcd, 0xfb, 0x0e, 0xfd,
  0xf9, 0x0d, 0xd3, 0x0b, 0x18, 0x06, 0xff, 0x10, 0xcf, 0xf5, 0xe4, 0xd8,
  0x1a, 0xe1, 0x23, 0x16, 0x11, 0x19, 0x12, 0xeb, 0xf2, 0x0b, 0x0d, 0xee,
  0xec, 0xe9, 0x08, 0x17, 0xf0, 0x04, 0x0b, 0x0f, 0xfd, 0x0e, 0x07, 0x17,
  0xe4, 0x1b, 0x11, 0x07, 0xef, 0x02, 0x06, 0xe0, 0x23, 0x02, 0xe2, 0xea,
  0x13, 0xdf, 0x13, 0xef, 0xf6, 0xeb, 0x02, 0x03, 0xe8, 0xdf, 0x09, 0xf2,
  0x2e, 0xd5, 0xd9, 0xb8, 0xe7, 0xd8, 0x07, 0xe7, 0x20, 0x09, 0x08, 0xee,
  0x08, 0x0a, 0x0e, 0xd3, 0x0f, 0xfd, 0x16, 0xe2, 0x12, 0x04, 0x1a, 0xfb,
  0x0d, 0x04, 0xde, 0x17, 0x08, 0xde, 0x19, 0x0d, 0xc3, 0xd2, 0x00, 0xfb,
  0xe0, 0x0c, 0x33, 0xf5, 0xed, 0xaf, 0xed, 0xe7, 0xf2, 0x35, 0x1d, 0x19,
  0x01, 0x05, 0x04, 0x05, 0x1d, 0x07, 0x19, 0x32, 0xdd, 0xb9, 0xe8, 0xfa,
  0x10, 0xff, 0xfe, 0x03, 0x01, 0xfc, 0xe8, 0x04, 0x1f, 0x09, 0xfe, 0x16,
  0x05, 0x0a, 0x0d, 0xe5, 0x26, 0xe1, 0x05, 0x0b, 0xfd, 0x0c, 0xee, 0x05,
  0x17, 0x16, 0x06, 0x00, 0x01, 0xe8, 0xdc, 0x1e, 0xe3, 0x16, 0x15, 0x13,
  0xf3, 0xf9, 0x11, 0xe5, 0x0c, 0x15, 0x0e, 0xfb, 0xe7, 0x0a, 0x0a, 0x0b,
  0x14, 0xf2, 0x0b, 0x02, 0x2c, 0x08, 0x9c, 0x2c, 0xdd, 0x42, 0xe9, 0x0c,
  0xc0, 0x21, 0xd7, 0xf7, 0x1b, 0xdf, 0xd1, 0xce, 0xef, 0xfc, 0xe1, 0x01,
  0xd2, 0x8e, 0x1e, 0xfa, 0xd2, 0x1d, 0xb0, 0x1d, 0x1d, 0x18, 0xe6, 0x05,
  0x00, 0xe8, 0x11, 0x19, 0x07, 0x10, 0x19, 0xf7, 0xed, 0xf6, 0x04, 0x08,
  0xf9, 0x09, 0x2a, 0xee, 0x34, 0x33, 0x08, 0xf4, 0xe9, 0xf2, 0x01, 0x02,
  0x00, 0x04, 0xfd, 0xff, 0x00, 0xf6, 0xf3, 0xe0, 0x10, 0xe4, 0x16, 0xf1,
  0xe5, 0xea, 0xf5, 0x1e, 0x0d, 0x09, 0x0e, 0x16, 0x13, 0x0c, 0x0f, 0xf6,
  0x07, 0x1e, 0x18, 0x19, 0xfc, 0x0f, 0x14, 0x13, 0xee, 0x01, 0x01, 0xfd,
  0xf6, 0xe9, 0xe2, 0x15, 0x2f, 0x16, 0x10, 0x9d, 0xef, 0xcf, 0x2d, 0x26,
  0x3f, 0xfc, 0xd5, 0xbf, 0x07, 0xdc, 0xe1, 0xb8, 0x15, 0xee, 0xcb, 0xde,
  0xca, 0x06, 0x1d, 0x46, 0xc1, 0x17, 0x4a, 0x01, 0x93, 0x06, 0x05, 0xe6,
  0x18, 0xf9, 0xfc, 0xf2, 0xf0, 0xf1, 0x06, 0x18, 0x14, 0x03, 0xe8, 0x13,
  0x14, 0x03, 0x0b, 0xf9, 0x16, 0x11, 0xde, 0xf1, 0xff, 0xb2, 0xda, 0x2b,
  0x0f, 0xec, 0x0a, 0xe9, 0xeb, 0xf9, 0xdf, 0xb5, 0xf9, 0xf1, 0x01, 0xe5,
  0xd7, 0xfc, 0xd9, 0xe0, 0xe4, 0x07, 0x0d, 0x19, 0x22, 0xff, 0xe9, 0xef,
  0x00, 0x00, 0x00, 0x00, 0xe2, 0xfd, 0xff, 0xff, 0x04, 0x00, 0x00, 0x00,
  0x08, 0x00, 0x00, 0x00, 0xff, 0xff, 0xff, 0xff, 0x10, 0x00, 0x00, 0x00,
  0x00, 0x00, 0x00, 0x00, 0x00, 0x00, 0x00, 0x00, 0x00, 0x00, 0x00, 0x00,
  0x02, 0xfe, 0xff, 0xff, 0x04, 0x00, 0x00, 0x00, 0x08, 0x00, 0x00, 0x00,
  0xa0, 0x0b, 0x00, 0x00, 0x60, 0xf4, 0xff, 0xff, 0x00, 0x00, 0x00, 0x00,
  0x00, 0x00, 0x00, 0x00, 0x00, 0x00, 0x00, 0x00, 0x22, 0xfe, 0xff, 0xff,
  0x04, 0x00, 0x00, 0x00, 0x00, 0x01, 0x00, 0x00, 0xb8, 0xfa, 0xff, 0xff,
  0xfb, 0xff, 0xff, 0xff, 0xf0, 0x05, 0x00, 0x00, 0xfb, 0xff, 0xff, 0xff,
  0xd0, 0xfb, 0xff, 0xff, 0xff, 0x05, 0x00, 0x00, 0xfd, 0x05, 0x00, 0x00,
  0xfd, 0x05, 0x00, 0x00, 0x00, 0x00, 0x00, 0x00, 0xf1, 0xff, 0xff, 0xff,
  0x13, 0xfe, 0xff, 0xff, 0x18, 0xfa, 0xff, 0xff, 0xf4, 0xff, 0xff, 0xff,
  0x10, 0xfa, 0xff, 0xff, 0xf3, 0x05, 0x00, 0x00, 0x0d, 0xff, 0xff, 0xff,
  0x5b, 0xfa, 0xff, 0xff, 0x72, 0x04, 0x00, 0x00, 0x69, 0xfc, 0xff, 0xff,
  0x00, 0x06, 0x00, 0x00, 0x04, 0xfa, 0xff, 0xff, 0x63, 0xff, 0xff, 0xff,
  0xfb, 0x05, 0x00, 0x00, 0x09, 0xfa, 0xff, 0xff, 0x00, 0x00, 0x00, 0x00,
  0xf2, 0xfb, 0xff, 0xff, 0xe4, 0xff, 0xff, 0xff, 0xf9, 0x05, 0x00, 0x00,
  0xfb, 0xff, 0xff, 0xff, 0x85, 0x00, 0x00, 0x00, 0xc5, 0x05, 0x00, 0x00,
  0x08, 0xfa, 0xff, 0xff, 0x1b, 0xfa, 0xff, 0xff, 0xf6, 0xf9, 0xff, 0xff,
  0xfb, 0xff, 0xff, 0xff, 0x71, 0x04, 0x00, 0x00, 0xfe, 0xff, 0xff, 0xff,
  0xf5, 0xff, 0xff, 0xff, 0xfa, 0xf9, 0xff, 0xff, 0xcb, 0xfa, 0xff, 0xff,
  0x00, 0x00, 0x00, 0x00, 0x00, 0x00, 0x00, 0x00, 0x6d, 0x01, 0x00, 0x00,
  0x06, 0x06, 0x00, 0x00, 0x26, 0xfa, 0xff, 0xff, 0xfc, 0xff, 0xff, 0xff,
  0x01, 0x00, 0x00, 0x00, 0x09, 0xfa, 0xff, 0xff, 0x0e, 0xff, 0xff, 0xff,
  0x9e, 0xfa, 0xff, 0xff, 0x09, 0xfa, 0xff, 0xff, 0xfd, 0x05, 0x00, 0x00,
  0xfb, 0x05, 0x00, 0x00, 0x73, 0xfe, 0xff, 0xff, 0x38, 0x00, 0x00, 0x00,
  0x0a, 0xfa, 0xff, 0xff, 0xf5, 0xf9, 0xff, 0xff, 0x15, 0xfa, 0xff, 0xff,
  0xfa, 0xf9, 0xff, 0xff, 0x56, 0xff, 0xff, 0xff, 0x4c, 0xfe, 0xff, 0xff,
  0x0a, 0x06, 0x00, 0x00, 0x5c, 0xff, 0xff, 0xff, 0xf7, 0xff, 0xff, 0xff,
  0x00, 0x00, 0x00, 0x00, 0x00, 0x00, 0x00, 0x00, 0x00, 0x00, 0x00, 0x00,
  0xfc, 0xf9, 0xff, 0xff, 0x00, 0x00, 0x00, 0x00, 0x00, 0x00, 0x00, 0x00,
  0x00, 0x00, 0x00, 0x00, 0x0c, 0xfa, 0xff, 0xff, 0x00, 0x00, 0x00, 0x00,
  0x00, 0x00, 0x00, 0x00, 0x00, 0x00, 0x00, 0x00, 0x0f, 0x00, 0x00, 0x00,
  0x4d, 0x4c, 0x49, 0x52, 0x20, 0x43, 0x6f, 0x6e, 0x76, 0x65, 0x72, 0x74,
  0x65, 0x64, 0x2e, 0x00, 0x01, 0x00, 0x00, 0x00, 0x14, 0x00, 0x00, 0x00,
  0x00, 0x00, 0x0e, 0x00, 0x18, 0x00, 0x04, 0x00, 0x08, 0x00, 0x0c, 0x00,
  0x10, 0x00, 0x14, 0x00, 0x0e, 0x00, 0x00, 0x00, 0x90, 0x01, 0x00, 0x00,
  0x84, 0x01, 0x00, 0x00, 0x78, 0x01, 0x00, 0x00, 0x14, 0x00, 0x00, 0x00,
  0x04, 0x00, 0x00, 0x00, 0x04, 0x00, 0x00, 0x00, 0x6d, 0x61, 0x69, 0x6e,
  0x00, 0x00, 0x00, 0x00, 0x06, 0x00, 0x00, 0x00, 0x3c, 0x01, 0x00, 0x00,
  0x0c, 0x01, 0x00, 0x00, 0xbc, 0x00, 0x00, 0x00, 0x74, 0x00, 0x00, 0x00,
  0x28, 0x00, 0x00, 0x00, 0x04, 0x00, 0x00, 0x00, 0xe6, 0xfe, 0xff, 0xff,
  0x04, 0x00, 0x00, 0x00, 0x10, 0x00, 0x00, 0x00, 0x04, 0x00, 0x00, 0x00,
  0x01, 0x00, 0x00, 0x00, 0x0b, 0x00, 0x00, 0x00, 0x01, 0x00, 0x00, 0x00,
  0x09, 0x00, 0x00, 0x00, 0x82, 0xff, 0xff, 0xff, 0x00, 0x00, 0x00, 0x09,
  0x02, 0x00, 0x00, 0x00, 0x24, 0x00, 0x00, 0x00, 0x18, 0x00, 0x00, 0x00,
  0x0c, 0x00, 0x00, 0x00, 0x00, 0x00, 0x06, 0x00, 0x08, 0x00, 0x04, 0x00,
  0x06, 0x00, 0x00, 0x00, 0x00, 0x00, 0x80, 0x3f, 0x01, 0x00, 0x00, 0x00,
  0x09, 0x00, 0x00, 0x00, 0x01, 0x00, 0x00, 0x00, 0x08, 0x00, 0x00, 0x00,
  0x00, 0x00, 0x0e, 0x00, 0x18, 0x00, 0x08, 0x00, 0x0c, 0x00, 0x10, 0x00,
  0x07, 0x00, 0x14, 0x00, 0x0e, 0x00, 0x00, 0x00, 0x00, 0x00, 0x00, 0x08,
  0x01, 0x00, 0x00, 0x00, 0x18, 0x00, 0x00, 0x00, 0x0c, 0x00, 0x00, 0x00,
  0x04, 0x00, 0x00, 0x00, 0x08, 0xfb, 0xff, 0xff, 0x01, 0x00, 0x00, 0x00,
  0x08, 0x00, 0x00, 0x00, 0x03, 0x00, 0x00, 0x00, 0x07, 0x00, 0x00, 0x00,
  0x05, 0x00, 0x00, 0x00, 0x02, 0x00, 0x00, 0x00, 0x00, 0x00, 0x0e, 0x00,
  0x1a, 0x00, 0x08, 0x00, 0x0c, 0x00, 0x10, 0x00, 0x07, 0x00, 0x14, 0x00,
  0x0e, 0x00, 0x00, 0x00, 0x00, 0x00, 0x00, 0x08, 0x01, 0x00, 0x00, 0x00,
  0x24, 0x00, 0x00, 0x00, 0x18, 0x00, 0x00, 0x00, 0x0c, 0x00, 0x00, 0x00,
  0x00, 0x00, 0x06, 0x00, 0x08, 0x00, 0x07, 0x00, 0x06, 0x00, 0x00, 0x00,
  0x00, 0x00, 0x00, 0x01, 0x01, 0x00, 0x00, 0x00, 0x07, 0x00, 0x00, 0x00,
  0x03, 0x00, 0x00, 0x00, 0x06, 0x00, 0x00, 0x00, 0x04, 0x00, 0x00, 0x00,
  0x01, 0x00, 0x00, 0x00, 0x00, 0x00, 0x0a, 0x00, 0x0c, 0x00, 0x00, 0x00,
  0x04, 0x00, 0x08, 0x00, 0x0a, 0x00, 0x00, 0x00, 0x10, 0x00, 0x00, 0x00,
  0x04, 0x00, 0x00, 0x00, 0x01, 0x00, 0x00, 0x00, 0x06, 0x00, 0x00, 0x00,
  0x02, 0x00, 0x00, 0x00, 0x00, 0x00, 0x00, 0x00, 0x03, 0x00, 0x00, 0x00,
  0x00, 0x00, 0x0a, 0x00, 0x10, 0x00, 0x04, 0x00, 0x08, 0x00, 0x0c, 0x00,
  0x0a, 0x00, 0x00, 0x00, 0x03, 0x00, 0x00, 0x00, 0x10, 0x00, 0x00, 0x00,
  0x04, 0x00, 0x00, 0x00, 0x01, 0x00, 0x00, 0x00, 0x00, 0x00, 0x00, 0x00,
  0x01, 0x00, 0x00, 0x00, 0x0a, 0x00, 0x00, 0x00, 0x01, 0x00, 0x00, 0x00,
  0x0b, 0x00, 0x00, 0x00, 0x01, 0x00, 0x00, 0x00, 0x0a, 0x00, 0x00, 0x00,
  0x0c, 0x00, 0x00, 0x00, 0x74, 0x05, 0x00, 0x00, 0xd8, 0x04, 0x00, 0x00,
  0x48, 0x04, 0x00, 0x00, 0xfc, 0x03, 0x00, 0x00, 0x80, 0x03, 0x00, 0x00,
  0xfc, 0x02, 0x00, 0x00, 0x68, 0x02, 0x00, 0x00, 0xac, 0x01, 0x00, 0x00,
  0x00, 0x01, 0x00, 0x00, 0x94, 0x00, 0x00, 0x00, 0x54, 0x00, 0x00, 0x00,
  0x04, 0x00, 0x00, 0x00, 0xc8, 0xff, 0xff, 0xff, 0x28, 0x00, 0x00, 0x00,
  0x14, 0x00, 0x00, 0x00, 0x04, 0x00, 0x00, 0x00, 0x02, 0x00, 0x00, 0x00,
  0xff, 0xff, 0xff, 0xff, 0x02, 0x00, 0x00, 0x00, 0x08, 0x00, 0x00, 0x00,
  0x49, 0x64, 0x65, 0x6e, 0x74, 0x69, 0x74, 0x79, 0x00, 0x00, 0x00, 0x00,
  0x02, 0x00, 0x00, 0x00, 0x01, 0x00, 0x00, 0x00, 0x02, 0x00, 0x00, 0x00,
  0x14, 0x00, 0x10, 0x00, 0x04, 0x00, 0x00, 0x00, 0x00, 0x00, 0x08, 0x00,
  0x00, 0x00, 0x00, 0x00, 0x00, 0x00, 0x0c, 0x00, 0x14, 0x00, 0x00, 0x00,
  0x2c, 0x00, 0x00, 0x00, 0x14, 0x00, 0x00, 0x00, 0x04, 0x00, 0x00, 0x00,
  0x02, 0x00, 0x00, 0x00, 0xff, 0xff, 0xff, 0xff, 0x10, 0x00, 0x00, 0x00,
  0x0d, 0x00, 0x00, 0x00, 0x66, 0x6c, 0x61, 0x74, 0x74, 0x65, 0x6e, 0x5f,
  0x69, 0x6e, 0x70, 0x75, 0x74, 0x00, 0x00, 0x00, 0x02, 0x00, 0x00, 0x00,
  0x01, 0x00, 0x00, 0x00, 0x10, 0x00, 0x00, 0x00, 0x58, 0xfb, 0xff, 0xff,
  0x00, 0x00, 0x00, 0x09, 0x54, 0x00, 0x00, 0x00, 0x0a, 0x00, 0x00, 0x00,
  0x38, 0x00, 0x00, 0x00, 0x14, 0x00, 0x00, 0x00, 0x04, 0x00, 0x00, 0x00,
  0x02, 0x00, 0x00, 0x00, 0xff, 0xff, 0xff, 0xff, 0x02, 0x00, 0x00, 0x00,
  0xec, 0xfb, 0xff, 0xff, 0x14, 0x00, 0x00, 0x00, 0x04, 0x00, 0x00, 0x00,
  0x01, 0x00, 0x00, 0x00, 0x80, 0xff, 0xff, 0xff, 0xff, 0xff, 0xff, 0xff,
  0x01, 0x00, 0x00, 0x00, 0x00, 0x00, 0x80, 0x3b, 0x0d, 0x00, 0x00, 0x00,
  0x49, 0x64, 0x65, 0x6e, 0x74, 0x69, 0x74, 0x79, 0x5f, 0x69, 0x6e, 0x74,
  0x38, 0x00, 0x00, 0x00, 0x02, 0x00, 0x00, 0x00, 0x01, 0x00, 0x00, 0x00,
  0x02, 0x00, 0x00, 0x00, 0xc0, 0xfb, 0xff, 0xff, 0x00, 0x00, 0x00, 0x09,
  0x94, 0x00, 0x00, 0x00, 0x09, 0x00, 0x00, 0x00, 0x50, 0x00, 0x00, 0x00,
  0x14, 0x00, 0x00, 0x00, 0x04, 0x00, 0x00, 0x00, 0x02, 0x00, 0x00, 0x00,
  0xff, 0xff, 0xff, 0xff, 0x02, 0x00, 0x00, 0x00, 0xac, 0xfb, 0xff, 0xff,
  0x2c, 0x00, 0x00, 0x00, 0x20, 0x00, 0x00, 0x00, 0x14, 0x00, 0x00, 0x00,
  0x04, 0x00, 0x00, 0x00, 0x01, 0x00, 0x00, 0x00, 0xcb, 0xff, 0xff, 0xff,
  0xff, 0xff, 0xff, 0xff, 0x01, 0x00, 0x00, 0x00, 0x26, 0xea, 0xff, 0x3e,
  0x01, 0x00, 0x00, 0x00, 0x51, 0x35, 0xb4, 0x42, 0x01, 0x00, 0x00, 0x00,
  0xd5, 0x69, 0x15, 0xc2, 0x34, 0x00, 0x00, 0x00, 0x73, 0x65, 0x71, 0x75,
  0x65, 0x6e, 0x74, 0x69, 0x61, 0x6c, 0x2f, 0x64, 0x65, 0x6e, 0x73, 0x65,
  0x5f, 0x31, 0x2f, 0x4d, 0x61, 0x74, 0x4d, 0x75, 0x6c, 0x3b, 0x73, 0x65,
  0x71, 0x75, 0x65, 0x6e, 0x74, 0x69, 0x61, 0x6c, 0x2f, 0x64, 0x65, 0x6e,
  0x73, 0x65, 0x5f, 0x31, 0x2f, 0x42, 0x69, 0x61, 0x73, 0x41, 0x64, 0x64,
  0x00, 0x00, 0x00, 0x00, 0x02, 0x00, 0x00, 0x00, 0x01, 0x00, 0x00, 0x00,
  0x02, 0x00, 0x00, 0x00, 0x68, 0xfc, 0xff, 0xff, 0x00, 0x00, 0x00, 0x09,
  0xa4, 0x00, 0x00, 0x00, 0x08, 0x00, 0x00, 0x00, 0x50, 0x00, 0x00, 0x00,
  0x14, 0x00, 0x00, 0x00, 0x04, 0x00, 0x00, 0x00, 0x02, 0x00, 0x00, 0x00,
  0xff, 0xff, 0xff, 0xff, 0x40, 0x00, 0x00, 0x00, 0x54, 0xfc, 0xff, 0xff,
  0x2c, 0x00, 0x00, 0x00, 0x20, 0x00, 0x00, 0x00, 0x14, 0x00, 0x00, 0x00,
  0x04, 0x00, 0x00, 0x00, 0x01, 0x00, 0x00, 0x00, 0x80, 0xff, 0xff, 0xff,
  0xff, 0xff, 0xff, 0xff, 0x01, 0x00, 0x00, 0x00, 0x83, 0x4e, 0x41, 0x3f,
  0x01, 0x00, 0x00, 0x00, 0x34, 0x8d, 0x40, 0x43, 0x01, 0x00, 0x00, 0x00,
  0x00, 0x00, 0x00, 0x00, 0x46, 0x00, 0x00, 0x00, 0x73, 0x65, 0x71, 0x75,
  0x65, 0x6e, 0x74, 0x69, 0x61, 0x6c, 0x2f, 0x64, 0x65, 0x6e, 0x73, 0x65,
  0x2f, 0x4d, 0x61, 0x74, 0x4d, 0x75, 0x6c, 0x3b, 0x73, 0x65, 0x71, 0x75,
  0x65, 0x6e, 0x74, 0x69, 0x61, 0x6c, 0x2f, 0x64, 0x65, 0x6e, 0x73, 0x65,
  0x2f, 0x52, 0x65, 0x6c, 0x75, 0x3b, 0x73, 0x65, 0x71, 0x75, 0x65, 0x6e,
  0x74, 0x69, 0x61, 0x6c, 0x2f, 0x64, 0x65, 0x6e, 0x73, 0x65, 0x2f, 0x42,
  0x69, 0x61, 0x73, 0x41, 0x64, 0x64, 0x00, 0x00, 0x02, 0x00, 0x00, 0x00,
  0x01, 0x00, 0x00, 0x00, 0x40, 0x00, 0x00, 0x00, 0x20, 0xfd, 0xff, 0xff,
  0x00, 0x00, 0x00, 0x09, 0x7c, 0x00, 0x00, 0x00, 0x07, 0x00, 0x00, 0x00,
  0x54, 0x00, 0x00, 0x00, 0x14, 0x00, 0x00, 0x00, 0x04, 0x00, 0x00, 0x00,
  0x02, 0x00, 0x00, 0x00, 0xff, 0xff, 0xff, 0xff, 0x10, 0x00, 0x00, 0x00,
  0x0c, 0xfd, 0xff, 0xff, 0x30, 0x00, 0x00, 0x00, 0x24, 0x00, 0x00, 0x00,
  0x18, 0x00, 0x00, 0x00, 0x04, 0x00, 0x00, 0x00, 0x01, 0x00, 0x00, 0x00,
  0x80, 0xff, 0xff, 0xff, 0xff, 0xff, 0xff, 0xff, 0x00, 0x00, 0x00, 0x00,
  0x01, 0x00, 0x00, 0x00, 0xba, 0xb9, 0x39, 0x3f, 0x01, 0x00, 0x00, 0x00,
  0x00, 0x00, 0x39, 0x43, 0x01, 0x00, 0x00, 0x00, 0x00, 0x00, 0x00, 0x00,
  0x1a, 0x00, 0x00, 0x00, 0x73, 0x65, 0x71, 0x75, 0x65, 0x6e, 0x74, 0x69,
  0x61, 0x6c, 0x2f, 0x66, 0x6c, 0x61, 0x74, 0x74, 0x65, 0x6e, 0x2f, 0x52,
  0x65, 0x73, 0x68, 0x61, 0x70, 0x65, 0x00, 0x00, 0x02, 0x00, 0x00, 0x00,
  0x01, 0x00, 0x00, 0x00, 0x10, 0x00, 0x00, 0x00, 0x42, 0xfe, 0xff, 0xff,
  0x00, 0x00, 0x00, 0x09, 0x6c, 0x00, 0x00, 0x00, 0x06, 0x00, 0x00, 0x00,
  0x44, 0x00, 0x00, 0x00, 0x04, 0x00, 0x00, 0x00, 0x8c, 0xfd, 0xff, 0xff,
  0x30, 0x00, 0x00, 0x00, 0x24, 0x00, 0x00, 0x00, 0x18, 0x00, 0x00, 0x00,
  0x04, 0x00, 0x00, 0x00, 0x01, 0x00, 0x00, 0x00, 0x00, 0x00, 0x00, 0x00,
  0x00, 0x00, 0x00, 0x00, 0x00, 0x00, 0x00, 0x00, 0x01, 0x00, 0x00, 0x00,
  0x5e, 0xd8, 0x63, 0x3b, 0x01, 0x00, 0x00, 0x00, 0xc0, 0x5b, 0xc4, 0x3e,
  0x01, 0x00, 0x00, 0x00, 0xad, 0x10, 0xe2, 0xbe, 0x19, 0x00, 0x00, 0x00,
  0x73, 0x65, 0x71, 0x75, 0x65, 0x6e, 0x74, 0x69, 0x61, 0x6c, 0x2f, 0x64,
  0x65, 0x6e, 0x73, 0x65, 0x5f, 0x31, 0x2f, 0x4d, 0x61, 0x74, 0x4d, 0x75,
  0x6c, 0x00, 0x00, 0x00, 0x02, 0x00, 0x00, 0x00, 0x02, 0x00, 0x00, 0x00,
  0x40, 0x00, 0x00, 0x00, 0xc2, 0xfe, 0xff, 0xff, 0x00, 0x00, 0x00, 0x09,
  0x64, 0x00, 0x00, 0x00, 0x05, 0x00, 0x00, 0x00, 0x40, 0x00, 0x00, 0x00,
  0x04, 0x00, 0x00, 0x00, 0x0c, 0xfe, 0xff, 0xff, 0x2c, 0x00, 0x00, 0x00,
  0x20, 0x00, 0x00, 0x00, 0x14, 0x00, 0x00, 0x00, 0x04, 0x00, 0x00, 0x00,
  0x01, 0x00, 0x00, 0x00, 0x00, 0x00, 0x00, 0x00, 0x00, 0x00, 0x00, 0x00,
  0x01, 0x00, 0x00, 0x00, 0xa3, 0x19, 0xe7, 0x3b, 0x01, 0x00, 0x00, 0x00,
  0x56, 0xf3, 0x06, 0x3f, 0x01, 0x00, 0x00, 0x00, 0x70, 0x4b, 0x65, 0xbf,
  0x17, 0x00, 0x00, 0x00, 0x73, 0x65, 0x71, 0x75, 0x65, 0x6e, 0x74, 0x69,
  0x61, 0x6c, 0x2f, 0x64, 0x65, 0x6e, 0x73, 0x65, 0x2f, 0x4d, 0x61, 0x74,
  0x4d, 0x75, 0x6c, 0x00, 0x02, 0x00, 0x00, 0x00, 0x40, 0x00, 0x00, 0x00,
  0x10, 0x00, 0x00, 0x00, 0x3a, 0xff, 0xff, 0xff, 0x00, 0x00, 0x00, 0x02,
  0x38, 0x00, 0x00, 0x00, 0x04, 0x00, 0x00, 0x00, 0x10, 0x00, 0x00, 0x00,
  0x08, 0x00, 0x00, 0x00, 0x04, 0x00, 0x04, 0x00, 0x04, 0x00, 0x00, 0x00,
  0x18, 0x00, 0x00, 0x00, 0x73, 0x65, 0x71, 0x75, 0x65, 0x6e, 0x74, 0x69,
  0x61, 0x6c, 0x2f, 0x66, 0x6c, 0x61, 0x74, 0x74, 0x65, 0x6e, 0x2f, 0x43,
  0x6f, 0x6e, 0x73, 0x74, 0x00, 0x00, 0x00, 0x00, 0x01, 0x00, 0x00, 0x00,
  0x02, 0x00, 0x00, 0x00, 0x82, 0xff, 0xff, 0xff, 0x00, 0x00, 0x00, 0x02,
  0x6c, 0x00, 0x00, 0x00, 0x03, 0x00, 0x00, 0x00, 0x2c, 0x00, 0x00, 0x00,
  0x04, 0x00, 0x00, 0x00, 0x74, 0xff, 0xff, 0xff, 0x18, 0x00, 0x00, 0x00,
  0x04, 0x00, 0x00, 0x00, 0x01, 0x00, 0x00, 0x00, 0x00, 0x00, 0x00, 0x00,
  0x00, 0x00, 0x00, 0x00, 0x00, 0x00, 0x00, 0x00, 0x01, 0x00, 0x00, 0x00,
  0xff, 0x0b, 0x2c, 0x3b, 0x32, 0x00, 0x00, 0x00, 0x73, 0x65, 0x71, 0x75,
  0x65, 0x6e, 0x74, 0x69, 0x61, 0x6c, 0x2f, 0x64, 0x65, 0x6e, 0x73, 0x65,
  0x5f, 0x31, 0x2f, 0x42, 0x69, 0x61, 0x73, 0x41, 0x64, 0x64, 0x2f, 0x52,
  0x65, 0x61, 0x64, 0x56, 0x61, 0x72, 0x69, 0x61, 0x62, 0x6c, 0x65, 0x4f,
  0x70, 0x2f, 0x72, 0x65, 0x73, 0x6f, 0x75, 0x72, 0x63, 0x65, 0x00, 0x00,
  0x01, 0x00, 0x00, 0x00, 0x02, 0x00, 0x00, 0x00, 0x00, 0x00, 0x0e, 0x00,
  0x18, 0x00, 0x08, 0x00, 0x07, 0x00, 0x0c, 0x00, 0x10, 0x00, 0x14, 0x00,
  0x0e, 0x00, 0x00, 0x00, 0x00, 0x00, 0x00, 0x02, 0x74, 0x00, 0x00, 0x00,
  0x02, 0x00, 0x00, 0x00, 0x34, 0x00, 0x00, 0x00, 0x10, 0x00, 0x00, 0x00,
  0x0c, 0x00, 0x0c, 0x00, 0x00, 0x00, 0x00, 0x00, 0x04, 0x00, 0x08, 0x00,
  0x0c, 0x00, 0x00, 0x00, 0x14, 0x00, 0x00, 0x00, 0x04, 0x00, 0x00, 0x00,
  0x01, 0x00, 0x00, 0x00, 0x00, 0x00, 0x00, 0x00, 0x00, 0x00, 0x00, 0x00,
  0x01, 0x00, 0x00, 0x00, 0x30, 0xa9, 0xa7, 0x3b, 0x30, 0x00, 0x00, 0x00,
  0x73, 0x65, 0x71, 0x75, 0x65, 0x6e, 0x74, 0x69, 0x61, 0x6c, 0x2f, 0x64,
  0x65, 0x6e, 0x73, 0x65, 0x2f, 0x42, 0x69, 0x61, 0x73, 0x41, 0x64, 0x64,
  0x2f, 0x52, 0x65, 0x61, 0x64, 0x56, 0x61, 0x72, 0x69, 0x61, 0x62, 0x6c,
  0x65, 0x4f, 0x70, 0x2f, 0x72, 0x65, 0x73, 0x6f, 0x75, 0x72, 0x63, 0x65,
  0x00, 0x00, 0x00, 0x00, 0x01, 0x00, 0x00, 0x00, 0x40, 0x00, 0x00, 0x00,
  0x14, 0x00, 0x1c, 0x00, 0x08, 0x00, 0x07, 0x00, 0x0c, 0x00, 0x10, 0x00,
  0x14, 0x00, 0x00, 0x00, 0x00, 0x00, 0x18, 0x00, 0x14, 0x00, 0x00, 0x00,
  0x00, 0x00, 0x00, 0x09, 0x80, 0x00, 0x00, 0x00, 0x01, 0x00, 0x00, 0x00,
  0x60, 0x00, 0x00, 0x00, 0x20, 0x00, 0x00, 0x00, 0x04, 0x00, 0x00, 0x00,
  0x02, 0x00, 0x00, 0x00, 0xff, 0xff, 0xff, 0xff, 0x10, 0x00, 0x00, 0x00,
  0x0c, 0x00, 0x14, 0x00, 0x04, 0x00, 0x08, 0x00, 0x0c, 0x00, 0x10, 0x00,
  0x0c, 0x00, 0x00, 0x00, 0x30, 0x00, 0x00, 0x00, 0x24, 0x00, 0x00, 0x00,
  0x18, 0x00, 0x00, 0x00, 0x04, 0x00, 0x00, 0x00, 0x01, 0x00, 0x00, 0x00,
  0x80, 0xff, 0xff, 0xff, 0xff, 0xff, 0xff, 0xff, 0x00, 0x00, 0x00, 0x00,
  0x01, 0x00, 0x00, 0x00, 0xba, 0xb9, 0x39, 0x3f, 0x01, 0x00, 0x00, 0x00,
  0x00, 0x00, 0x39, 0x43, 0x01, 0x00, 0x00, 0x00, 0x00, 0x00, 0x00, 0x00,
  0x12, 0x00, 0x00, 0x00, 0x66, 0x6c, 0x61, 0x74, 0x74, 0x65, 0x6e, 0x5f,
  0x69, 0x6e, 0x70, 0x75, 0x74, 0x5f, 0x69, 0x6e, 0x74, 0x38, 0x00, 0x00,
  0x02, 0x00, 0x00, 0x00, 0x01, 0x00, 0x00, 0x00, 0x10, 0x00, 0x00, 0x00,
  0x05, 0x00, 0x00, 0x00, 0x68, 0x00, 0x00, 0x00, 0x48, 0x00, 0x00, 0x00,
  0x28, 0x00, 0x00, 0x00, 0x18, 0x00, 0x00, 0x00, 0x04, 0x00, 0x00, 0x00,
  0xd4, 0xff, 0xff, 0xff, 0x00, 0x00, 0x00, 0x06, 0x02, 0x00, 0x00, 0x00,
  0x06, 0x00, 0x00, 0x00, 0xc8, 0xff, 0xff, 0xff, 0x00, 0x00, 0x00, 0x72,
  0x72, 0x00, 0x00, 0x00, 0xf0, 0xff, 0xff, 0xff, 0x00, 0x00, 0x00, 0x19,
  0x02, 0x00, 0x00, 0x00, 0x19, 0x00, 0x00, 0x00, 0x0c, 0x00, 0x10, 0x00,
  0x07, 0x00, 0x00, 0x00, 0x08, 0x00, 0x0c, 0x00, 0x0c, 0x00, 0x00, 0x00,
  0x00, 0x00, 0x00, 0x09, 0x04, 0x00, 0x00, 0x00, 0x09, 0x00, 0x00, 0x00,
  0x0c, 0x00, 0x0c, 0x00, 0x07, 0x00, 0x00, 0x00, 0x00, 0x00, 0x08, 0x00,
  0x0c, 0x00, 0x00, 0x00, 0x00, 0x00, 0x00, 0x16, 0x16, 0x00, 0x00, 0x00
};
unsigned int model_data_LED_model_quantized_tflite_len = 3936;
